{
  "version": "1.0",
  "truncation": null,
  "padding": null,
  "added_tokens": [
    {
      "id": 0,
      "content": "[PAD]",
      "single_word": false,
      "lstrip": false,
      "rstrip": false,
      "normalized": false,
      "special": true
    },
    {
      "id": 1,
      "content": "[SOS]",
      "single_word": false,
      "lstrip": false,
      "rstrip": false,
      "normalized": false,
      "special": true
    },
    {
      "id": 2,
      "content": "[EOS]",
      "single_word": false,
      "lstrip": false,
      "rstrip": false,
      "normalized": false,
      "special": true
    },
    {
      "id": 3,
      "content": "[UNK]",
      "single_word": false,
      "lstrip": false,
      "rstrip": false,
      "normalized": false,
      "special": true
    }
  ],
  "normalizer": null,
  "pre_tokenizer": {
    "type": "Whitespace"
  },
  "post_processor": null,
  "decoder": null,
  "model": {
    "type": "BPE",
    "dropout": null,
    "unk_token": "[UNK]",
    "continuing_subword_prefix": null,
    "end_of_word_suffix": null,
    "fuse_unk": false,
    "byte_fallback": false,
    "ignore_merges": false,
    "vocab": {
      "[PAD]": 0,
      "[SOS]": 1,
      "[EOS]": 2,
      "[UNK]": 3,
      "!": 4,
      "\"": 5,
      "#": 6,
      "$": 7,
      "%": 8,
      "&": 9,
      "'": 10,
      "(": 11,
      ")": 12,
      ",": 13,
      "-": 14,
      ".": 15,
      "/": 16,
      "0": 17,
      "1": 18,
      "2": 19,
      "3": 20,
      "4": 21,
      "5": 22,
      "6": 23,
      "7": 24,
      "8": 25,
      "9": 26,
      ":": 27,
      ";": 28,
      "=": 29,
      "?": 30,
      "@": 31,
      "A": 32,
      "B": 33,
      "C": 34,
      "D": 35,
      "E": 36,
      "F": 37,
      "G": 38,
      "H": 39,
      "I": 40,
      "J": 41,
      "K": 42,
      "L": 43,
      "M": 44,
      "N": 45,
      "O": 46,
      "P": 47,
      "Q": 48,
      "R": 49,
      "S": 50,
      "T": 51,
      "U": 52,
      "V": 53,
      "W": 54,
      "X": 55,
      "Y": 56,
      "Z": 57,
      "_": 58,
      "`": 59,
      "a": 60,
      "b": 61,
      "c": 62,
      "d": 63,
      "e": 64,
      "f": 65,
      "g": 66,
      "h": 67,
      "i": 68,
      "j": 69,
      "k": 70,
      "l": 71,
      "m": 72,
      "n": 73,
      "o": 74,
      "p": 75,
      "q": 76,
      "r": 77,
      "s": 78,
      "t": 79,
      "u": 80,
      "v": 81,
      "w": 82,
      "x": 83,
      "y": 84,
      "z": 85,
      "Ä": 86,
      "Ö": 87,
      "Ü": 88,
      "ß": 89,
      "à": 90,
      "ä": 91,
      "è": 92,
      "é": 93,
      "ñ": 94,
      "ö": 95,
      "ü": 96,
      "–": 97,
      "‘": 98,
      "’": 99,
      "“": 100,
      "”": 101,
      "„": 102,
      "in": 103,
      "en": 104,
      "er": 105,
      "an": 106,
      "ein": 107,
      "ch": 108,
      "it": 109,
      "ing": 110,
      "un": 111,
      "ar": 112,
      "au": 113,
      "on": 114,
      "em": 115,
      "st": 116,
      "Ein": 117,
      "le": 118,
      "th": 119,
      "re": 120,
      "and": 121,
      "el": 122,
      "al": 123,
      "is": 124,
      "einem": 125,
      "und": 126,
      "at": 127,
      "ro": 128,
      "ge": 129,
      "or": 130,
      "ei": 131,
      "man": 132,
      "ck": 133,
      "es": 134,
      "as": 135,
      "auf": 136,
      "the": 137,
      "et": 138,
      "mit": 139,
      "wo": 140,
      "ir": 141,
      "sch": 142,
      "Man": 143,
      "la": 144,
      "der": 145,
      "ra": 146,
      "ie": 147,
      "of": 148,
      "Mann": 149,
      "einer": 150,
      "to": 151,
      "hr": 152,
      "si": 153,
      "ith": 154,
      "with": 155,
      "wei": 156,
      "rau": 157,
      "il": 158,
      "ol": 159,
      "ung": 160,
      "Eine": 161,
      "pe": 162,
      "all": 163,
      "de": 164,
      "ter": 165,
      "bl": 166,
      "be": 167,
      "im": 168,
      "ers": 169,
      "bo": 170,
      "sp": 171,
      "ut": 172,
      "am": 173,
      "sit": 174,
      "sh": 175,
      "Frau": 176,
      "ten": 177,
      "op": 178,
      "men": 179,
      "do": 180,
      "wh": 181,
      "eine": 182,
      "up": 183,
      "lo": 184,
      "ur": 185,
      "ne": 186,
      "ri": 187,
      "iel": 188,
      "we": 189,
      "chen": 190,
      "ht": 191,
      "are": 192,
      "St": 193,
      "den": 194,
      "einen": 195,
      "king": 196,
      "um": 197,
      "Mä": 198,
      "se": 199,
      "gen": 200,
      "ben": 201,
      "woman": 202,
      "irt": 203,
      "die": 204,
      "ach": 205,
      "ste": 206,
      "pla": 207,
      "gro": 208,
      "ding": 209,
      "ber": 210,
      "Sch": 211,
      "zu": 212,
      "ver": 213,
      "Zwei": 214,
      "ass": 215,
      "ople": 216,
      "Two": 217,
      "play": 218,
      "ack": 219,
      "he": 220,
      "ball": 221,
      "spiel": 222,
      "ic": 223,
      "om": 224,
      "ft": 225,
      "id": 226,
      "aring": 227,
      "ad": 228,
      "stand": 229,
      "te": 230,
      "shirt": 231,
      "ting": 232,
      "wal": 233,
      "erson": 234,
      "li": 235,
      "hen": 236,
      "war": 237,
      "vor": 238,
      "sitz": 239,
      "wearing": 240,
      "ind": 241,
      "wn": 242,
      "gr": 243,
      "people": 244,
      "ite": 245,
      "kl": 246,
      "rei": 247,
      "ßen": 248,
      "von": 249,
      "ot": 250,
      "ner": 251,
      "her": 252,
      "unge": 253,
      "sich": 254,
      "oung": 255,
      "gt": 256,
      "red": 257,
      "ier": 258,
      "ile": 259,
      "dem": 260,
      "ähr": 261,
      "ue": 262,
      "bei": 263,
      "lt": 264,
      "ild": 265,
      "white": 266,
      "irl": 267,
      "ss": 268,
      "for": 269,
      "boy": 270,
      "dchen": 271,
      "Mädchen": 272,
      "young": 273,
      "his": 274,
      "girl": 275,
      "out": 276,
      "dog": 277,
      "ther": 278,
      "nen": 279,
      "bla": 280,
      "ed": 281,
      "Hund": 282,
      "co": 283,
      "Person": 284,
      "tr": 285,
      "black": 286,
      "wat": 287,
      "ta": 288,
      "cht": 289,
      "ße": 290,
      "warz": 291,
      "side": 292,
      "ug": 293,
      "while": 294,
      "one": 295,
      "Gr": 296,
      "ig": 297,
      "blue": 298,
      "ce": 299,
      "eines": 300,
      "nner": 301,
      "schwarz": 302,
      "ts": 303,
      "end": 304,
      "by": 305,
      "Männer": 306,
      "hä": 307,
      "blau": 308,
      "steht": 309,
      "ahr": 310,
      "ent": 311,
      "stre": 312,
      "ho": 313,
      "Stra": 314,
      "sitting": 315,
      "ark": 316,
      "hol": 317,
      "leid": 318,
      "lä": 319,
      "ik": 320,
      "air": 321,
      "loo": 322,
      "ren": 323,
      "Men": 324,
      "po": 325,
      "sitzt": 326,
      "aus": 327,
      "ap": 328,
      "standing": 329,
      "ist": 330,
      "ander": 331,
      "fr": 332,
      "playing": 333,
      "isch": 334,
      "über": 335,
      "Junge": 336,
      "child": 337,
      "bu": 338,
      "gel": 339,
      "ow": 340,
      "group": 341,
      "street": 342,
      "wa": 343,
      "uppe": 344,
      "schen": 345,
      "Ge": 346,
      "ard": 347,
      "down": 348,
      "ont": 349,
      "hält": 350,
      "lan": 351,
      "ul": 352,
      "Straße": 353,
      "ährend": 354,
      "ree": 355,
      "Sp": 356,
      "während": 357,
      "hat": 358,
      "ve": 359,
      "walking": 360,
      "unter": 361,
      "fo": 362,
      "An": 363,
      "ion": 364,
      "sm": 365,
      "Menschen": 366,
      "Gruppe": 367,
      "walk": 368,
      "spielt": 369,
      "front": 370,
      "Hem": 371,
      "inter": 372,
      "other": 373,
      "ome": 374,
      "ange": 375,
      "cro": 376,
      "ger": 377,
      "ze": 378,
      "sk": 379,
      "holding": 380,
      "car": 381,
      "sen": 382,
      "dre": 383,
      "Hemd": 384,
      "ink": 385,
      "ring": 386,
      "än": 387,
      "ell": 388,
      "Personen": 389,
      "fen": 390,
      "water": 391,
      "dur": 392,
      "itt": 393,
      "run": 394,
      "schau": 395,
      "tra": 396,
      "fer": 397,
      "inder": 398,
      "che": 399,
      "low": 400,
      "das": 401,
      "ke": 402,
      "ate": 403,
      "ick": 404,
      "uft": 405,
      "Le": 406,
      "The": 407,
      "wor": 408,
      "ür": 409,
      "blauen": 410,
      "form": 411,
      "ru": 412,
      "ump": 413,
      "ct": 414,
      "ying": 415,
      "sing": 416,
      "stehen": 417,
      "asser": 418,
      "weißen": 419,
      "des": 420,
      "thro": 421,
      "ma": 422,
      "eil": 423,
      "neben": 424,
      "back": 425,
      "acht": 426,
      "bra": 427,
      "some": 428,
      "Kinder": 429,
      "ha": 430,
      "mo": 431,
      "amer": 432,
      "gre": 433,
      "Frauen": 434,
      "Wasser": 435,
      "far": 436,
      "beit": 437,
      "roten": 438,
      "fe": 439,
      "durch": 440,
      "imm": 441,
      "sitzen": 442,
      "rad": 443,
      "pa": 444,
      "Kind": 445,
      "ba": 446,
      "äu": 447,
      "ihr": 448,
      "orange": 449,
      "uit": 450,
      "looking": 451,
      "green": 452,
      "Fo": 453,
      "jump": 454,
      "braun": 455,
      "spring": 456,
      "spielen": 457,
      "ble": 458,
      "women": 459,
      "now": 460,
      "weiß": 461,
      "ittle": 462,
      "geht": 463,
      "lar": 464,
      "hn": 465,
      "grü": 466,
      "Th": 467,
      "board": 468,
      "ler": 469,
      "fro": 470,
      "bro": 471,
      "ans": 472,
      "Drei": 473,
      "trä": 474,
      "fähr": 475,
      "fährt": 476,
      "Hand": 477,
      "fahr": 478,
      "outside": 479,
      "ugh": 480,
      "lie": 481,
      "ong": 482,
      "art": 483,
      "kleid": 484,
      "Fahr": 485,
      "lass": 486,
      "Three": 487,
      "od": 488,
      "farben": 489,
      "trägt": 490,
      "gra": 491,
      "ground": 492,
      "little": 493,
      "lang": 494,
      "di": 495,
      "large": 496,
      "ks": 497,
      "ff": 498,
      "da": 499,
      "through": 500,
      "Au": 501,
      "amera": 502,
      "per": 503,
      "Bo": 504,
      "elt": 505,
      "ellow": 506,
      "Kleid": 507,
      "Leut": 508,
      "snow": 509,
      "brown": 510,
      "cle": 511,
      "yellow": 512,
      "Ober": 513,
      "Spiel": 514,
      "teil": 515,
      "ere": 516,
      "two": 517,
      "ih": 518,
      "ph": 519,
      "over": 520,
      "zen": 521,
      "sed": 522,
      "kleines": 523,
      "cke": 524,
      "hand": 525,
      "eir": 526,
      "con": 527,
      "macht": 528,
      "springt": 529,
      "lter": 530,
      "was": 531,
      "Me": 532,
      "jack": 533,
      "age": 534,
      "bik": 535,
      "ure": 536,
      "entlang": 537,
      "schwarzen": 538,
      "ert": 539,
      "blon": 540,
      "from": 541,
      "their": 542,
      "eln": 543,
      "junge": 544,
      "into": 545,
      "ds": 546,
      "arbeit": 547,
      "ine": 548,
      "Sh": 549,
      "ase": 550,
      "Se": 551,
      "zwei": 552,
      "ly": 553,
      "person": 554,
      "xt": 555,
      "kleiner": 556,
      "sa": 557,
      "vers": 558,
      "hal": 559,
      "gehen": 560,
      "ning": 561,
      "ungen": 562,
      "watch": 563,
      "buil": 564,
      "thing": 565,
      "Ho": 566,
      "sie": 567,
      "lu": 568,
      "ank": 569,
      "building": 570,
      "ame": 571,
      "children": 572,
      "Ba": 573,
      "next": 574,
      "aar": 575,
      "ssed": 576,
      "Leute": 577,
      "stru": 578,
      "small": 579,
      "Ar": 580,
      "near": 581,
      "je": 582,
      "top": 583,
      "dressed": 584,
      "ght": 585,
      "Fel": 586,
      "fa": 587,
      "hin": 588,
      "crow": 589,
      "uß": 590,
      "sw": 591,
      "ille": 592,
      "clo": 593,
      "bäu": 594,
      "ischen": 595,
      "Sk": 596,
      "jacket": 597,
      "igen": 598,
      "off": 599,
      "table": 600,
      "kleidet": 601,
      "ster": 602,
      "ving": 603,
      "grass": 604,
      "Pe": 605,
      "wir": 606,
      "Fahrrad": 607,
      "pink": 608,
      "otor": 609,
      "rand": 610,
      "ill": 611,
      "Oberteil": 612,
      "ant": 613,
      "aro": 614,
      "dy": 615,
      "ige": 616,
      "cken": 617,
      "mu": 618,
      "iert": 619,
      "Fuß": 620,
      "lat": 621,
      "ab": 622,
      "etwas": 623,
      "ag": 624,
      "ask": 625,
      "älter": 626,
      "riding": 627,
      "let": 628,
      "hrere": 629,
      "running": 630,
      "park": 631,
      "seinem": 632,
      "uch": 633,
      "People": 634,
      "großen": 635,
      "dr": 636,
      "Ball": 637,
      "hel": 638,
      "nee": 639,
      "bri": 640,
      "me": 641,
      "orts": 642,
      "another": 643,
      "around": 644,
      "grünen": 645,
      "fiel": 646,
      "so": 647,
      "rep": 648,
      "weg": 649,
      "fü": 650,
      "ycle": 651,
      "nach": 652,
      "eit": 653,
      "ort": 654,
      "Gebäu": 655,
      "Jack": 656,
      "br": 657,
      "col": 658,
      "schaut": 659,
      "hl": 660,
      "grund": 661,
      "ity": 662,
      "icht": 663,
      "field": 664,
      "gekleidet": 665,
      "sidewalk": 666,
      "us": 667,
      "Hinter": 668,
      "ern": 669,
      "cks": 670,
      "work": 671,
      "qu": 672,
      "bt": 673,
      "lasses": 674,
      "way": 675,
      "Ges": 676,
      "Bau": 677,
      "beach": 678,
      "pu": 679,
      "ob": 680,
      "Luft": 681,
      "tal": 682,
      "nt": 683,
      "tain": 684,
      "hind": 685,
      "ang": 686,
      "cross": 687,
      "opf": 688,
      "läuft": 689,
      "Shirt": 690,
      "old": 691,
      "crowd": 692,
      "nis": 693,
      "pic": 694,
      "Der": 695,
      "hair": 696,
      "aufen": 697,
      "zt": 698,
      "Mehrere": 699,
      "Frei": 700,
      "Strand": 701,
      "stands": 702,
      "farbenen": 703,
      "cer": 704,
      "gu": 705,
      "sits": 706,
      "jumping": 707,
      "sind": 708,
      "dress": 709,
      "sur": 710,
      "behind": 711,
      "bike": 712,
      "mer": 713,
      "für": 714,
      "läch": 715,
      "ling": 716,
      "Asi": 717,
      "sho": 718,
      "sehen": 719,
      "Hintergrund": 720,
      "hinter": 721,
      "phone": 722,
      "Jungen": 723,
      "door": 724,
      "aseball": 725,
      "rot": 726,
      "halten": 727,
      "ful": 728,
      "head": 729,
      "Re": 730,
      "com": 731,
      "jung": 732,
      "ture": 733,
      "go": 734,
      "ping": 735,
      "spieler": 736,
      "asket": 737,
      "Jacke": 738,
      "Kleidung": 739,
      "rest": 740,
      "les": 741,
      "als": 742,
      "Freien": 743,
      "itar": 744,
      "anderen": 745,
      "ateboard": 746,
      "background": 747,
      "Br": 748,
      "iling": 749,
      "zeug": 750,
      "dan": 751,
      "sc": 752,
      "ating": 753,
      "Kopf": 754,
      "ies": 755,
      "gelben": 756,
      "sam": 757,
      "gest": 758,
      "asi": 759,
      "cing": 760,
      "met": 761,
      "junger": 762,
      "ation": 763,
      "wer": 764,
      "wall": 765,
      "hoch": 766,
      "vorbei": 767,
      "bre": 768,
      "ped": 769,
      "city": 770,
      "pf": 771,
      "In": 772,
      "af": 773,
      "pro": 774,
      "ör": 775,
      "Tisch": 776,
      "iform": 777,
      "ice": 778,
      "eren": 779,
      "cher": 780,
      "untain": 781,
      "player": 782,
      "girls": 783,
      "bic": 784,
      "ucht": 785,
      "its": 786,
      "perform": 787,
      "picture": 788,
      "pan": 789,
      "suit": 790,
      "ves": 791,
      "looks": 792,
      "vol": 793,
      "ück": 794,
      "ün": 795,
      "otball": 796,
      "bar": 797,
      "menge": 798,
      "Schnee": 799,
      "uitar": 800,
      "zug": 801,
      "dogs": 802,
      "Son": 803,
      "stei": 804,
      "andere": 805,
      "Nä": 806,
      "tan": 807,
      "Hut": 808,
      "Gebäude": 809,
      "guitar": 810,
      "veral": 811,
      "Foto": 812,
      "Bü": 813,
      "that": 814,
      "zei": 815,
      "camera": 816,
      "Fußball": 817,
      "schwarzer": 818,
      "hne": 819,
      "aur": 820,
      "lag": 821,
      "rock": 822,
      "asketball": 823,
      "bet": 824,
      "Te": 825,
      "kt": 826,
      "bus": 827,
      "ade": 828,
      "ll": 829,
      "wird": 830,
      "Gras": 831,
      "jo": 832,
      "blick": 833,
      "Kamera": 834,
      "set": 835,
      "older": 836,
      "deck": 837,
      "fahrer": 838,
      "Nähe": 839,
      "ssen": 840,
      "talking": 841,
      "fon": 842,
      "something": 843,
      "band": 844,
      "mid": 845,
      "wimm": 846,
      "sten": 847,
      "beim": 848,
      "blond": 849,
      "cl": 850,
      "boys": 851,
      "kleine": 852,
      "ip": 853,
      "mp": 854,
      "kleinen": 855,
      "ccer": 856,
      "Gitar": 857,
      "Park": 858,
      "hor": 859,
      "einander": 860,
      "under": 861,
      "Stad": 862,
      "weißer": 863,
      "üt": 864,
      "Menschenmenge": 865,
      "bes": 866,
      "gn": 867,
      "along": 868,
      "ire": 869,
      "iger": 870,
      "walks": 871,
      "sto": 872,
      "food": 873,
      "ga": 874,
      "ieren": 875,
      "stri": 876,
      "boar": 877,
      "Hunde": 878,
      "Haar": 879,
      "dle": 880,
      "Geh": 881,
      "working": 882,
      "ische": 883,
      "aurant": 884,
      "ys": 885,
      "road": 886,
      "lady": 887,
      "gether": 888,
      "together": 889,
      "soccer": 890,
      "ish": 891,
      "ment": 892,
      "fahren": 893,
      "Boden": 894,
      "ihre": 895,
      "rosa": 896,
      "dun": 897,
      "uniform": 898,
      "gray": 899,
      "grau": 900,
      "Ber": 901,
      "alt": 902,
      "ction": 903,
      "liegt": 904,
      "ive": 905,
      "bicycle": 906,
      "att": 907,
      "smiling": 908,
      "him": 909,
      "Die": 910,
      "rennt": 911,
      "has": 912,
      "plays": 913,
      "game": 914,
      "ak": 915,
      "bereit": 916,
      "Feld": 917,
      "Sonnen": 918,
      "them": 919,
      "bench": 920,
      "Straßen": 921,
      "rying": 922,
      "sand": 923,
      "schie": 924,
      "Vier": 925,
      "We": 926,
      "zusam": 927,
      "can": 928,
      "latz": 929,
      "führ": 930,
      "Gitarre": 931,
      "ich": 932,
      "schauen": 933,
      "Stadt": 934,
      "kel": 935,
      "tri": 936,
      "Asian": 937,
      "ded": 938,
      "letter": 939,
      "ple": 940,
      "tel": 941,
      "arm": 942,
      "holds": 943,
      "ater": 944,
      "ihren": 945,
      "swe": 946,
      "äft": 947,
      "face": 948,
      "Blu": 949,
      "glasses": 950,
      "posi": 951,
      "clim": 952,
      "Je": 953,
      "Four": 954,
      "tre": 955,
      "ok": 956,
      "är": 957,
      "chair": 958,
      "herum": 959,
      "ight": 960,
      "pants": 961,
      "bef": 962,
      "shorts": 963,
      "pur": 964,
      "stu": 965,
      "room": 966,
      "get": 967,
      "braunen": 968,
      "zusammen": 969,
      "wing": 970,
      "steig": 971,
      "Pfer": 972,
      "spe": 973,
      "atch": 974,
      "richt": 975,
      "Motor": 976,
      "ema": 977,
      "brauner": 978,
      "Auto": 979,
      "asiat": 980,
      "Sand": 981,
      "kid": 982,
      "las": 983,
      "stage": 984,
      "dern": 985,
      "Tri": 986,
      "abo": 987,
      "iz": 988,
      "gesch": 989,
      "coup": 990,
      "na": 991,
      "carrying": 992,
      "dirt": 993,
      "wach": 994,
      "baby": 995,
      "boat": 996,
      "team": 997,
      "pool": 998,
      "lau": 999,
      "sein": 1000,
      "Er": 1001,
      "mark": 1002,
      "älterer": 1003,
      "kauf": 1004,
      "ette": 1005,
      "light": 1006,
      "raußen": 1007,
      "pain": 1008,
      "pen": 1009,
      "par": 1010,
      "bedeck": 1011,
      "couple": 1012,
      "Jeans": 1013,
      "Bühne": 1014,
      "climb": 1015,
      "tree": 1016,
      "Wo": 1017,
      "each": 1018,
      "outdoor": 1019,
      "coat": 1020,
      "sieht": 1021,
      "draußen": 1022,
      "look": 1023,
      "fema": 1024,
      "Stu": 1025,
      "day": 1026,
      "ult": 1027,
      "mountain": 1028,
      "Brille": 1029,
      "elle": 1030,
      "shop": 1031,
      "Several": 1032,
      "race": 1033,
      "Gehweg": 1034,
      "long": 1035,
      "sign": 1036,
      "hell": 1037,
      "seine": 1038,
      "Skateboard": 1039,
      "ley": 1040,
      "read": 1041,
      "bag": 1042,
      "Baby": 1043,
      "Arbeit": 1044,
      "jeans": 1045,
      "blickt": 1046,
      "wachsen": 1047,
      "ading": 1048,
      "sun": 1049,
      "taking": 1050,
      "Gel": 1051,
      "Mik": 1052,
      "cor": 1053,
      "mic": 1054,
      "stü": 1055,
      "laufen": 1056,
      "ischer": 1057,
      "wagen": 1058,
      "hinunter": 1059,
      "ide": 1060,
      "sle": 1061,
      "ust": 1062,
      "arbeitet": 1063,
      "Mikro": 1064,
      "schlä": 1065,
      "dabei": 1066,
      "Essen": 1067,
      "Hol": 1068,
      "ald": 1069,
      "doing": 1070,
      "ain": 1071,
      "seinen": 1072,
      "ckt": 1073,
      "amm": 1074,
      "ep": 1075,
      "flo": 1076,
      "gi": 1077,
      "ett": 1078,
      "micro": 1079,
      "across": 1080,
      "dark": 1081,
      "ex": 1082,
      "wie": 1083,
      "hoto": 1084,
      "boarder": 1085,
      "win": 1086,
      "eing": 1087,
      "rol": 1088,
      "Ver": 1089,
      "uth": 1090,
      "schn": 1091,
      "watching": 1092,
      "iting": 1093,
      "Schwimm": 1094,
      "lich": 1095,
      "brille": 1096,
      "Hän": 1097,
      "Mu": 1098,
      "ub": 1099,
      "tragen": 1100,
      "Ren": 1101,
      "area": 1102,
      "male": 1103,
      "fest": 1104,
      "angen": 1105,
      "train": 1106,
      "ckey": 1107,
      "Fe": 1108,
      "gegen": 1109,
      "middle": 1110,
      "iv": 1111,
      "sic": 1112,
      "motor": 1113,
      "photo": 1114,
      "ess": 1115,
      "Fr": 1116,
      "fri": 1117,
      "versucht": 1118,
      "io": 1119,
      "lächeln": 1120,
      "Un": 1121,
      "Be": 1122,
      "Bank": 1123,
      "kur": 1124,
      "store": 1125,
      "Baseball": 1126,
      "dar": 1127,
      "cover": 1128,
      "jumps": 1129,
      "fall": 1130,
      "hands": 1131,
      "helmet": 1132,
      "Baum": 1133,
      "Wand": 1134,
      "arbeiten": 1135,
      "zeigt": 1136,
      "cli": 1137,
      "who": 1138,
      "igh": 1139,
      "kletter": 1140,
      "zer": 1141,
      "horse": 1142,
      "dow": 1143,
      "Dame": 1144,
      "swing": 1145,
      "performing": 1146,
      "Holz": 1147,
      "Hel": 1148,
      "Paar": 1149,
      "ath": 1150,
      "ired": 1151,
      "rä": 1152,
      "gestrei": 1153,
      "Bür": 1154,
      "eating": 1155,
      "uck": 1156,
      "machen": 1157,
      "Kl": 1158,
      "Ro": 1159,
      "fit": 1160,
      "tt": 1161,
      "using": 1162,
      "große": 1163,
      "lichen": 1164,
      "lächelt": 1165,
      "female": 1166,
      "being": 1167,
      "ins": 1168,
      "striped": 1169,
      "Hü": 1170,
      "baseball": 1171,
      "orangefarbenen": 1172,
      "guy": 1173,
      "lea": 1174,
      "amil": 1175,
      "color": 1176,
      "Bürger": 1177,
      "Mau": 1178,
      "cre": 1179,
      "iten": 1180,
      "ons": 1181,
      "mouth": 1182,
      "bun": 1183,
      "kot": 1184,
      "scha": 1185,
      "sik": 1186,
      "utz": 1187,
      "music": 1188,
      "rennen": 1189,
      "ihrem": 1190,
      "grün": 1191,
      "football": 1192,
      "pack": 1193,
      "gather": 1194,
      "kes": 1195,
      "put": 1196,
      "ted": 1197,
      "Rad": 1198,
      "pet": 1199,
      "Boot": 1200,
      "ihm": 1201,
      "Gesch": 1202,
      "instru": 1203,
      "Gesicht": 1204,
      "purple": 1205,
      "gh": 1206,
      "pt": 1207,
      "irm": 1208,
      "kleidung": 1209,
      "Bürgersteig": 1210,
      "unst": 1211,
      "Motorrad": 1212,
      "ca": 1213,
      "net": 1214,
      "prep": 1215,
      "aum": 1216,
      "platz": 1217,
      "junges": 1218,
      "towar": 1219,
      "haired": 1220,
      "Hose": 1221,
      "ältere": 1222,
      "Bild": 1223,
      "pol": 1224,
      "ses": 1225,
      "liest": 1226,
      "Ten": 1227,
      "rü": 1228,
      "here": 1229,
      "aper": 1230,
      "Band": 1231,
      "tennis": 1232,
      "anderer": 1233,
      "Trikot": 1234,
      "kom": 1235,
      "vie": 1236,
      "enjo": 1237,
      "posing": 1238,
      "runs": 1239,
      "führt": 1240,
      "window": 1241,
      "Young": 1242,
      "Zu": 1243,
      "dri": 1244,
      "spricht": 1245,
      "unterhalten": 1246,
      "schaft": 1247,
      "Tennis": 1248,
      "sung": 1249,
      "stra": 1250,
      "adult": 1251,
      "hän": 1252,
      "zie": 1253,
      "reading": 1254,
      "ey": 1255,
      "ps": 1256,
      "ser": 1257,
      "bele": 1258,
      "struction": 1259,
      "bal": 1260,
      "part": 1261,
      "use": 1262,
      "lefon": 1263,
      "woo": 1264,
      "past": 1265,
      "ften": 1266,
      "vest": 1267,
      "ffit": 1268,
      "iese": 1269,
      "sunglasses": 1270,
      "flow": 1271,
      "ken": 1272,
      "oth": 1273,
      "pul": 1274,
      "show": 1275,
      "Auf": 1276,
      "Wald": 1277,
      "iet": 1278,
      "kar": 1279,
      "pass": 1280,
      "stick": 1281,
      "weißem": 1282,
      "Haaren": 1283,
      "drei": 1284,
      "cean": 1285,
      "Bahn": 1286,
      "clothing": 1287,
      "three": 1288,
      "bow": 1289,
      "players": 1290,
      "indet": 1291,
      "microphone": 1292,
      "Musik": 1293,
      "Spieler": 1294,
      "Hosen": 1295,
      "There": 1296,
      "basketball": 1297,
      "uer": 1298,
      "aut": 1299,
      "ütze": 1300,
      "kn": 1301,
      "swimm": 1302,
      "covered": 1303,
      "Kü": 1304,
      "line": 1305,
      "mar": 1306,
      "zum": 1307,
      "toy": 1308,
      "haar": 1309,
      "Meer": 1310,
      "fish": 1311,
      "ßt": 1312,
      "puter": 1313,
      "betra": 1314,
      "ocean": 1315,
      "wood": 1316,
      "grauen": 1317,
      "Kunst": 1318,
      "ßer": 1319,
      "Sonnenbrille": 1320,
      "Basketball": 1321,
      "watches": 1322,
      "cloth": 1323,
      "Rest": 1324,
      "Pferd": 1325,
      "fl": 1326,
      "itet": 1327,
      "she": 1328,
      "during": 1329,
      "restaurant": 1330,
      "dancing": 1331,
      "climbing": 1332,
      "motorc": 1333,
      "Eis": 1334,
      "wä": 1335,
      "Fris": 1336,
      "cap": 1337,
      "hill": 1338,
      "blauem": 1339,
      "bright": 1340,
      "gekleidete": 1341,
      "kids": 1342,
      "seiner": 1343,
      "ars": 1344,
      "geb": 1345,
      "derly": 1346,
      "hang": 1347,
      "ement": 1348,
      "Football": 1349,
      "Tag": 1350,
      "ces": 1351,
      "round": 1352,
      "beob": 1353,
      "gend": 1354,
      "shirts": 1355,
      "Felsen": 1356,
      "again": 1357,
      "Ko": 1358,
      "La": 1359,
      "gg": 1360,
      "Zuschau": 1361,
      "Pol": 1362,
      "anz": 1363,
      "asch": 1364,
      "Gelän": 1365,
      "against": 1366,
      "Helm": 1367,
      "ev": 1368,
      "len": 1369,
      "open": 1370,
      "rides": 1371,
      "umbre": 1372,
      "skateboard": 1373,
      "singt": 1374,
      "klettert": 1375,
      "catch": 1376,
      "high": 1377,
      "ool": 1378,
      "ored": 1379,
      "ition": 1380,
      "rain": 1381,
      "smile": 1382,
      "ffiti": 1383,
      "Rol": 1384,
      "fol": 1385,
      "elderly": 1386,
      "ihnen": 1387,
      "Erwachsen": 1388,
      "Pul": 1389,
      "sst": 1390,
      "schu": 1391,
      "weiße": 1392,
      "arbeiter": 1393,
      "leyball": 1394,
      "Ru": 1395,
      "no": 1396,
      "Mantel": 1397,
      "dies": 1398,
      "dunkel": 1399,
      "Berg": 1400,
      "Fen": 1401,
      "Rei": 1402,
      "kick": 1403,
      "dis": 1404,
      "tet": 1405,
      "ated": 1406,
      "blo": 1407,
      "very": 1408,
      "Shorts": 1409,
      "market": 1410,
      "fel": 1411,
      "book": 1412,
      "One": 1413,
      "stum": 1414,
      "posiert": 1415,
      "trees": 1416,
      "about": 1417,
      "wooden": 1418,
      "aun": 1419,
      "ix": 1420,
      "uchen": 1421,
      "bee": 1422,
      "trink": 1423,
      "appe": 1424,
      "skate": 1425,
      "having": 1426,
      "darauf": 1427,
      "Fenster": 1428,
      "Pf": 1429,
      "plan": 1430,
      "öff": 1431,
      "emand": 1432,
      "asche": 1433,
      "floor": 1434,
      "ien": 1435,
      "lin": 1436,
      "utsch": 1437,
      "lover": 1438,
      "waiting": 1439,
      "örper": 1440,
      "Feuer": 1441,
      "dge": 1442,
      "anzug": 1443,
      "they": 1444,
      "Mikrofon": 1445,
      "Restaurant": 1446,
      "Ch": 1447,
      "vel": 1448,
      "truck": 1449,
      "blauer": 1450,
      "wirft": 1451,
      "befindet": 1452,
      "Vor": 1453,
      "cut": 1454,
      "ial": 1455,
      "mm": 1456,
      "zur": 1457,
      "Blumen": 1458,
      "swimming": 1459,
      "Mit": 1460,
      "alter": 1461,
      "ampf": 1462,
      "urn": 1463,
      "lip": 1464,
      "getting": 1465,
      "colorful": 1466,
      "gle": 1467,
      "ance": 1468,
      "essen": 1469,
      "costum": 1470,
      "Her": 1471,
      "ac": 1472,
      "workers": 1473,
      "hü": 1474,
      "aning": 1475,
      "asen": 1476,
      "lap": 1477,
      "sha": 1478,
      "cour": 1479,
      "trying": 1480,
      "Spielzeug": 1481,
      "construction": 1482,
      "Geschäft": 1483,
      "sel": 1484,
      "cket": 1485,
      "ash": 1486,
      "igar": 1487,
      "cart": 1488,
      "bereitet": 1489,
      "motorcycle": 1490,
      "Fl": 1491,
      "pie": 1492,
      "box": 1493,
      "fire": 1494,
      "ena": 1495,
      "atue": 1496,
      "denen": 1497,
      "schwarzem": 1498,
      "Bade": 1499,
      "night": 1500,
      "ycli": 1501,
      "isst": 1502,
      "Schild": 1503,
      "gelb": 1504,
      "hnt": 1505,
      "versamm": 1506,
      "gekleideter": 1507,
      "busy": 1508,
      "Klein": 1509,
      "yclist": 1510,
      "cell": 1511,
      "kit": 1512,
      "son": 1513,
      "chten": 1514,
      "singing": 1515,
      "Regen": 1516,
      "Das": 1517,
      "kind": 1518,
      "sehr": 1519,
      "Schu": 1520,
      "fence": 1521,
      "springen": 1522,
      "Woman": 1523,
      "rung": 1524,
      "luss": 1525,
      "This": 1526,
      "az": 1527,
      "body": 1528,
      "new": 1529,
      "Pullover": 1530,
      "Raum": 1531,
      "du": 1532,
      "ka": 1533,
      "stair": 1534,
      "asse": 1535,
      "mitten": 1536,
      "langen": 1537,
      "rotem": 1538,
      "Met": 1539,
      "land": 1540,
      "oder": 1541,
      "pre": 1542,
      "ries": 1543,
      "path": 1544,
      "Weg": 1545,
      "Arbeiter": 1546,
      "Zeit": 1547,
      "less": 1548,
      "aten": 1549,
      "roter": 1550,
      "coo": 1551,
      "Trep": 1552,
      "gar": 1553,
      "ors": 1554,
      "ride": 1555,
      "liche": 1556,
      "surf": 1557,
      "compet": 1558,
      "De": 1559,
      "sli": 1560,
      "zw": 1561,
      "laying": 1562,
      "licher": 1563,
      "Fre": 1564,
      "iele": 1565,
      "tern": 1566,
      "Männern": 1567,
      "Anzug": 1568,
      "Some": 1569,
      "Wiese": 1570,
      "big": 1571,
      "dler": 1572,
      "flag": 1573,
      "lehnt": 1574,
      "unden": 1575,
      "schwarze": 1576,
      "Sport": 1577,
      "hats": 1578,
      "Kindern": 1579,
      "gestreiften": 1580,
      "Wei": 1581,
      "becken": 1582,
      "telefon": 1583,
      "wartet": 1584,
      "drink": 1585,
      "ele": 1586,
      "körper": 1587,
      "paper": 1588,
      "ject": 1589,
      "sil": 1590,
      "slee": 1591,
      "clothes": 1592,
      "gem": 1593,
      "inside": 1594,
      "river": 1595,
      "Schutz": 1596,
      "ikan": 1597,
      "werden": 1598,
      "others": 1599,
      "kitchen": 1600,
      "dra": 1601,
      "ko": 1602,
      "lla": 1603,
      "mach": 1604,
      "sell": 1605,
      "hockey": 1606,
      "grassy": 1607,
      "ünf": 1608,
      "Frisbee": 1609,
      "cellphone": 1610,
      "Sur": 1611,
      "ym": 1612,
      "chtet": 1613,
      "making": 1614,
      "surround": 1615,
      "Mark": 1616,
      "iter": 1617,
      "whe": 1618,
      "Arm": 1619,
      "voller": 1620,
      "posieren": 1621,
      "Rucks": 1622,
      "Fluss": 1623,
      "Ne": 1624,
      "Ob": 1625,
      "kan": 1626,
      "ini": 1627,
      "ders": 1628,
      "outfit": 1629,
      "backpack": 1630,
      "brick": 1631,
      "push": 1632,
      "trick": 1633,
      "Bluse": 1634,
      "Maul": 1635,
      "Buch": 1636,
      "geben": 1637,
      "eich": 1638,
      "takes": 1639,
      "track": 1640,
      "Oberkörper": 1641,
      "Stuhl": 1642,
      "lei": 1643,
      "ican": 1644,
      "metal": 1645,
      "laugh": 1646,
      "umbrella": 1647,
      "Kar": 1648,
      "Wa": 1649,
      "det": 1650,
      "app": 1651,
      "änger": 1652,
      "achtet": 1653,
      "immer": 1654,
      "full": 1655,
      "kauft": 1656,
      "towards": 1657,
      "beleb": 1658,
      "Mo": 1659,
      "Sto": 1660,
      "oben": 1661,
      "viel": 1662,
      "ates": 1663,
      "atshirt": 1664,
      "Stein": 1665,
      "Hügel": 1666,
      "Fünf": 1667,
      "yard": 1668,
      "stone": 1669,
      "ellen": 1670,
      "liegen": 1671,
      "enjoying": 1672,
      "zieht": 1673,
      "Um": 1674,
      "Viele": 1675,
      "ny": 1676,
      "phon": 1677,
      "schnei": 1678,
      "Pro": 1679,
      "To": 1680,
      "warten": 1681,
      "überqu": 1682,
      "colored": 1683,
      "Rennen": 1684,
      "igarette": 1685,
      "inden": 1686,
      "schla": 1687,
      "schirm": 1688,
      "ugg": 1689,
      "roller": 1690,
      "Metall": 1691,
      "lit": 1692,
      "tank": 1693,
      "ese": 1694,
      "sport": 1695,
      "cow": 1696,
      "dance": 1697,
      "tanzen": 1698,
      "ready": 1699,
      "betrachtet": 1700,
      "Kostü": 1701,
      "piece": 1702,
      "hard": 1703,
      "hör": 1704,
      "ian": 1705,
      "ierten": 1706,
      "wheel": 1707,
      "ban": 1708,
      "ry": 1709,
      "genie": 1710,
      "house": 1711,
      "Handy": 1712,
      "dunkl": 1713,
      "zwischen": 1714,
      "Five": 1715,
      "Snow": 1716,
      "ücken": 1717,
      "star": 1718,
      "äumen": 1719,
      "Bet": 1720,
      "kis": 1721,
      "ät": 1722,
      "lake": 1723,
      "fee": 1724,
      "bahn": 1725,
      "äufer": 1726,
      "blonde": 1727,
      "drum": 1728,
      "painting": 1729,
      "Afri": 1730,
      "Gra": 1731,
      "Haus": 1732,
      "Pap": 1733,
      "ücke": 1734,
      "reibt": 1735,
      "Leuten": 1736,
      "drin": 1737,
      "schläft": 1738,
      "So": 1739,
      "kü": 1740,
      "pra": 1741,
      "reitet": 1742,
      "ise": 1743,
      "tent": 1744,
      "häut": 1745,
      "fore": 1746,
      "amerikan": 1747,
      "paar": 1748,
      "sweater": 1749,
      "Child": 1750,
      "Mütze": 1751,
      "Seil": 1752,
      "sub": 1753,
      "ramp": 1754,
      "utter": 1755,
      "zeit": 1756,
      "Bauarbeiter": 1757,
      "photogra": 1758,
      "emp": 1759,
      "boot": 1760,
      "several": 1761,
      "Schn": 1762,
      "isten": 1763,
      "above": 1764,
      "Stock": 1765,
      "Amer": 1766,
      "cal": 1767,
      "cur": 1768,
      "kor": 1769,
      "alten": 1770,
      "row": 1771,
      "mann": 1772,
      "test": 1773,
      "haben": 1774,
      "immt": 1775,
      "Out": 1776,
      "bel": 1777,
      "mt": 1778,
      "led": 1779,
      "deo": 1780,
      "wehr": 1781,
      "lila": 1782,
      "going": 1783,
      "Händen": 1784,
      "enager": 1785,
      "pad": 1786,
      "onto": 1787,
      "many": 1788,
      "bedeckten": 1789,
      "beobachtet": 1790,
      "Kleinkind": 1791,
      "Markt": 1792,
      "rope": 1793,
      "ork": 1794,
      "miteinander": 1795,
      "Schul": 1796,
      "herunter": 1797,
      "snowy": 1798,
      "Bäumen": 1799,
      "Ka": 1800,
      "del": 1801,
      "män": 1802,
      "rit": 1803,
      "chter": 1804,
      "eman": 1805,
      "ied": 1806,
      "iegel": 1807,
      "wave": 1808,
      "Ski": 1809,
      "worker": 1810,
      "shopping": 1811,
      "Rucksack": 1812,
      "Co": 1813,
      "Famil": 1814,
      "hu": 1815,
      "llt": 1816,
      "ron": 1817,
      "versch": 1818,
      "grill": 1819,
      "poin": 1820,
      "graf": 1821,
      "hlen": 1822,
      "asian": 1823,
      "tanzt": 1824,
      "uniforms": 1825,
      "surrounded": 1826,
      "fangen": 1827,
      "nack": 1828,
      "ellt": 1829,
      "schö": 1830,
      "like": 1831,
      "ihrer": 1832,
      "crowded": 1833,
      "Renn": 1834,
      "Radfahrer": 1835,
      "Ger": 1836,
      "Land": 1837,
      "Zaun": 1838,
      "stic": 1839,
      "schnee": 1840,
      "ief": 1841,
      "Gewä": 1842,
      "geschäft": 1843,
      "Gro": 1844,
      "Zug": 1845,
      "stein": 1846,
      "leg": 1847,
      "gear": 1848,
      "bed": 1849,
      "amen": 1850,
      "pole": 1851,
      "Aus": 1852,
      "schiebt": 1853,
      "smiles": 1854,
      "Com": 1855,
      "En": 1856,
      "dition": 1857,
      "rän": 1858,
      "beside": 1859,
      "outdoors": 1860,
      "Schwimmbecken": 1861,
      "friend": 1862,
      "instrumen": 1863,
      "aschine": 1864,
      "männ": 1865,
      "Bl": 1866,
      "frei": 1867,
      "igt": 1868,
      "vom": 1869,
      "wand": 1870,
      "tod": 1871,
      "convers": 1872,
      "See": 1873,
      "swim": 1874,
      "befinden": 1875,
      "adults": 1876,
      "Poliz": 1877,
      "event": 1878,
      "bir": 1879,
      "famil": 1880,
      "hmen": 1881,
      "ges": 1882,
      "lot": 1883,
      "Gegen": 1884,
      "altung": 1885,
      "drinking": 1886,
      "Gewäss": 1887,
      "Pu": 1888,
      "Einkauf": 1889,
      "hose": 1890,
      "orangefarben": 1891,
      "shoes": 1892,
      "Get": 1893,
      "Or": 1894,
      "Rücken": 1895,
      "class": 1896,
      "kä": 1897,
      "scar": 1898,
      "tem": 1899,
      "ven": 1900,
      "sion": 1901,
      "ski": 1902,
      "aged": 1903,
      "bridge": 1904,
      "after": 1905,
      "Küche": 1906,
      "bur": 1907,
      "bble": 1908,
      "gol": 1909,
      "num": 1910,
      "raft": 1911,
      "Schlag": 1912,
      "Sprung": 1913,
      "lassen": 1914,
      "Seite": 1915,
      "flowers": 1916,
      "Zuschauer": 1917,
      "Beton": 1918,
      "Sof": 1919,
      "iful": 1920,
      "wel": 1921,
      "anst": 1922,
      "ond": 1923,
      "spaz": 1924,
      "verschie": 1925,
      "läche": 1926,
      "fountain": 1927,
      "arms": 1928,
      "gathered": 1929,
      "autiful": 1930,
      "Bik": 1931,
      "Cow": 1932,
      "Welle": 1933,
      "nimmt": 1934,
      "stück": 1935,
      "umgeben": 1936,
      "Schau": 1937,
      "Instru": 1938,
      "kurzen": 1939,
      "hanging": 1940,
      "Bus": 1941,
      "Flag": 1942,
      "away": 1943,
      "gym": 1944,
      "tim": 1945,
      "vier": 1946,
      "ines": 1947,
      "legt": 1948,
      "too": 1949,
      "foto": 1950,
      "hängt": 1951,
      "feld": 1952,
      "subway": 1953,
      "Kon": 1954,
      "Lo": 1955,
      "mel": 1956,
      "leap": 1957,
      "ween": 1958,
      "skirt": 1959,
      "tradition": 1960,
      "Treppe": 1961,
      "African": 1962,
      "family": 1963,
      "Gem": 1964,
      "Ha": 1965,
      "stä": 1966,
      "lachen": 1967,
      "Schü": 1968,
      "sky": 1969,
      "volleyball": 1970,
      "preparing": 1971,
      "haarige": 1972,
      "Pla": 1973,
      "Wer": 1974,
      "bs": 1975,
      "bat": 1976,
      "gang": 1977,
      "kaufen": 1978,
      "leaning": 1979,
      "schw": 1980,
      "schein": 1981,
      "schwimm": 1982,
      "steps": 1983,
      "verkauft": 1984,
      "ballo": 1985,
      "tables": 1986,
      "object": 1987,
      "costume": 1988,
      "Familie": 1989,
      "toddler": 1990,
      "Sa": 1991,
      "Tor": 1992,
      "bank": 1993,
      "ient": 1994,
      "mitt": 1995,
      "Many": 1996,
      "offen": 1997,
      "beautiful": 1998,
      "short": 1999,
      "gent": 2000,
      "take": 2001,
      "offic": 2002,
      "computer": 2003,
      "athon": 2004,
      "view": 2005,
      "fishing": 2006,
      "sleeping": 2007,
      "Wagen": 2008,
      "schneidet": 2009,
      "just": 2010,
      "does": 2011,
      "gerade": 2012,
      "trail": 2013,
      "make": 2014,
      "guys": 2015,
      "rosafarbenen": 2016,
      "trinkt": 2017,
      "versammelt": 2018,
      "Children": 2019,
      "Geträn": 2020,
      "arn": 2021,
      "statue": 2022,
      "plaid": 2023,
      "try": 2024,
      "aussehen": 2025,
      "bunten": 2026,
      "machine": 2027,
      "Papier": 2028,
      "American": 2029,
      "ium": 2030,
      "ls": 2031,
      "plat": 2032,
      "ved": 2033,
      "benut": 2034,
      "Schwarz": 2035,
      "stairs": 2036,
      "ihn": 2037,
      "pit": 2038,
      "attoo": 2039,
      "ops": 2040,
      "ummer": 2041,
      "isches": 2042,
      "four": 2043,
      "court": 2044,
      "kämp": 2045,
      "anstaltung": 2046,
      "Do": 2047,
      "Richt": 2048,
      "cup": 2049,
      "hnen": 2050,
      "mat": 2051,
      "malt": 2052,
      "zo": 2053,
      "einige": 2054,
      "rote": 2055,
      "rail": 2056,
      "mehr": 2057,
      "chairs": 2058,
      "glass": 2059,
      "hem": 2060,
      "ki": 2061,
      "nel": 2062,
      "rin": 2063,
      "zimmer": 2064,
      "gruppe": 2065,
      "tag": 2066,
      "runnen": 2067,
      "graffiti": 2068,
      "police": 2069,
      "telefoniert": 2070,
      "spazieren": 2071,
      "cam": 2072,
      "hö": 2073,
      "hut": 2074,
      "mas": 2075,
      "wet": 2076,
      "chas": 2077,
      "stung": 2078,
      "mittel": 2079,
      "hebt": 2080,
      "tritt": 2081,
      "pose": 2082,
      "smo": 2083,
      "Teenager": 2084,
      "asiatische": 2085,
      "belebten": 2086,
      "Computer": 2087,
      "ast": 2088,
      "equ": 2089,
      "kon": 2090,
      "alen": 2091,
      "rocks": 2092,
      "wed": 2093,
      "achten": 2094,
      "großer": 2095,
      "shirtless": 2096,
      "ausge": 2097,
      "forest": 2098,
      "halb": 2099,
      "ious": 2100,
      "balan": 2101,
      "schuhen": 2102,
      "selling": 2103,
      "pract": 2104,
      "Vol": 2105,
      "hit": 2106,
      "ja": 2107,
      "jers": 2108,
      "jemand": 2109,
      "tall": 2110,
      "ünst": 2111,
      "Fußballspieler": 2112,
      "setting": 2113,
      "boarding": 2114,
      "sunny": 2115,
      "schlägt": 2116,
      "Reihe": 2117,
      "schwimmt": 2118,
      "fle": 2119,
      "hil": 2120,
      "mart": 2121,
      "eten": 2122,
      "lies": 2123,
      "immel": 2124,
      "weißes": 2125,
      "Team": 2126,
      "blicken": 2127,
      "Rock": 2128,
      "sonn": 2129,
      "Gewässer": 2130,
      "Mar": 2131,
      "Rasen": 2132,
      "Ty": 2133,
      "fliegt": 2134,
      "match": 2135,
      "chs": 2136,
      "ats": 2137,
      "scht": 2138,
      "racing": 2139,
      "hohen": 2140,
      "eller": 2141,
      "kehr": 2142,
      "Kopfbedeck": 2143,
      "Autos": 2144,
      "parade": 2145,
      "instrument": 2146,
      "kommt": 2147,
      "schneebedeckten": 2148,
      "freiem": 2149,
      "scarf": 2150,
      "Mutter": 2151,
      "Tasche": 2152,
      "bor": 2153,
      "dt": 2154,
      "tur": 2155,
      "einigen": 2156,
      "blow": 2157,
      "both": 2158,
      "listen": 2159,
      "foot": 2160,
      "bereiten": 2161,
      "corner": 2162,
      "grünem": 2163,
      "putting": 2164,
      "utsche": 2165,
      "Zeitung": 2166,
      "vielen": 2167,
      "equip": 2168,
      "Bart": 2169,
      "cr": 2170,
      "hing": 2171,
      "kne": 2172,
      "pick": 2173,
      "tro": 2174,
      "ally": 2175,
      "blik": 2176,
      "rift": 2177,
      "teen": 2178,
      "lässt": 2179,
      "throw": 2180,
      "throwing": 2181,
      "bikes": 2182,
      "hinauf": 2183,
      "Gebäudes": 2184,
      "Brücke": 2185,
      "Hände": 2186,
      "straße": 2187,
      "flower": 2188,
      "Feuerwehr": 2189,
      "pushing": 2190,
      "gentl": 2191,
      "sonnigen": 2192,
      "blikum": 2193,
      "Himmel": 2194,
      "Sie": 2195,
      "dist": 2196,
      "pat": 2197,
      "ügen": 2198,
      "alte": 2199,
      "roll": 2200,
      "cking": 2201,
      "olin": 2202,
      "blic": 2203,
      "befest": 2204,
      "span": 2205,
      "have": 2206,
      "jacke": 2207,
      "public": 2208,
      "between": 2209,
      "Unter": 2210,
      "slide": 2211,
      "Publikum": 2212,
      "fotograf": 2213,
      "zogen": 2214,
      "Alter": 2215,
      "Platz": 2216,
      "hic": 2217,
      "nä": 2218,
      "ching": 2219,
      "ladies": 2220,
      "dent": 2221,
      "assen": 2222,
      "couch": 2223,
      "Hemden": 2224,
      "scen": 2225,
      "stuhl": 2226,
      "rüstung": 2227,
      "party": 2228,
      "Geländer": 2229,
      "laughing": 2230,
      "time": 2231,
      "kämpfen": 2232,
      "Richtung": 2233,
      "ünstler": 2234,
      "Ju": 2235,
      "Kampf": 2236,
      "Ma": 2237,
      "Mü": 2238,
      "Par": 2239,
      "flip": 2240,
      "link": 2241,
      "beard": 2242,
      "groß": 2243,
      "vert": 2244,
      "fruit": 2245,
      "cture": 2246,
      "someone": 2247,
      "instruments": 2248,
      "Cowboy": 2249,
      "equipment": 2250,
      "Gar": 2251,
      "fight": 2252,
      "glo": 2253,
      "hot": 2254,
      "kö": 2255,
      "squ": 2256,
      "vi": 2257,
      "unten": 2258,
      "station": 2259,
      "lad": 2260,
      "where": 2261,
      "ned": 2262,
      "zuschauen": 2263,
      "vehic": 2264,
      "dien": 2265,
      "Hoch": 2266,
      "jekt": 2267,
      "shoul": 2268,
      "pictures": 2269,
      "Weste": 2270,
      "ärt": 2271,
      "dunklen": 2272,
      "Graffiti": 2273,
      "Bar": 2274,
      "mil": 2275,
      "winter": 2276,
      "empt": 2277,
      "school": 2278,
      "lage": 2279,
      "bott": 2280,
      "dock": 2281,
      "plastic": 2282,
      "blaue": 2283,
      "spea": 2284,
      "markt": 2285,
      "woods": 2286,
      "Schutzhel": 2287,
      "Bier": 2288,
      "Kan": 2289,
      "clu": 2290,
      "äum": 2291,
      "erlea": 2292,
      "str": 2293,
      "stop": 2294,
      "reach": 2295,
      "ungs": 2296,
      "which": 2297,
      "playground": 2298,
      "poses": 2299,
      "works": 2300,
      "Spielplatz": 2301,
      "concre": 2302,
      "werk": 2303,
      "voll": 2304,
      "sweatshirt": 2305,
      "phones": 2306,
      "Kopfbedeckung": 2307,
      "concrete": 2308,
      "Che": 2309,
      "Hof": 2310,
      "Jo": 2311,
      "din": 2312,
      "dig": 2313,
      "innen": 2314,
      "ause": 2315,
      "dire": 2316,
      "Augen": 2317,
      "illed": 2318,
      "uses": 2319,
      "asiatischer": 2320,
      "Erwachsene": 2321,
      "number": 2322,
      "Pool": 2323,
      "gold": 2324,
      "hi": 2325,
      "ems": 2326,
      "Mannes": 2327,
      "midair": 2328,
      "attemp": 2329,
      "reads": 2330,
      "Flug": 2331,
      "mittler": 2332,
      "fet": 2333,
      "öp": 2334,
      "emen": 2335,
      "stad": 2336,
      "els": 2337,
      "bear": 2338,
      "Leben": 2339,
      "ctor": 2340,
      "blondes": 2341,
      "shovel": 2342,
      "führen": 2343,
      "ival": 2344,
      "padd": 2345,
      "Fisch": 2346,
      "Winter": 2347,
      "happ": 2348,
      "inger": 2349,
      "alle": 2350,
      "atten": 2351,
      "ators": 2352,
      "coun": 2353,
      "cope": 2354,
      "bucket": 2355,
      "ängt": 2356,
      "davon": 2357,
      "suits": 2358,
      "karierten": 2359,
      "cowboy": 2360,
      "Ab": 2361,
      "Dach": 2362,
      "fä": 2363,
      "fläche": 2364,
      "grei": 2365,
      "gner": 2366,
      "enter": 2367,
      "unnel": 2368,
      "stik": 2369,
      "sche": 2370,
      "beer": 2371,
      "ute": 2372,
      "ampe": 2373,
      "right": 2374,
      "Schirm": 2375,
      "zusehen": 2376,
      "lick": 2377,
      "braune": 2378,
      "Hockey": 2379,
      "Skate": 2380,
      "mehrere": 2381,
      "shore": 2382,
      "spect": 2383,
      "dunkelhäut": 2384,
      "Freund": 2385,
      "überqueren": 2386,
      "genießt": 2387,
      "verschne": 2388,
      "Schaukel": 2389,
      "distance": 2390,
      "Glas": 2391,
      "Jemand": 2392,
      "Kre": 2393,
      "bare": 2394,
      "home": 2395,
      "vend": 2396,
      "anim": 2397,
      "auto": 2398,
      "aschen": 2399,
      "site": 2400,
      "nehmen": 2401,
      "Stück": 2402,
      "seated": 2403,
      "Schla": 2404,
      "ids": 2405,
      "rush": 2406,
      "repar": 2407,
      "Indi": 2408,
      "attire": 2409,
      "bags": 2410,
      "Mauer": 2411,
      "cream": 2412,
      "toward": 2413,
      "Kunststück": 2414,
      "Roller": 2415,
      "Decke": 2416,
      "hemd": 2417,
      "Jugend": 2418,
      "Far": 2419,
      "Sold": 2420,
      "hik": 2421,
      "lying": 2422,
      "yo": 2423,
      "left": 2424,
      "lacht": 2425,
      "laster": 2426,
      "what": 2427,
      "place": 2428,
      "sca": 2429,
      "scre": 2430,
      "brett": 2431,
      "ideo": 2432,
      "gibt": 2433,
      "fallen": 2434,
      "gestreift": 2435,
      "gging": 2436,
      "Zuschauern": 2437,
      "städt": 2438,
      "mittleren": 2439,
      "Lebens": 2440,
      "Bal": 2441,
      "Blick": 2442,
      "Klei": 2443,
      "cert": 2444,
      "filled": 2445,
      "vio": 2446,
      "schrift": 2447,
      "bull": 2448,
      "gelber": 2449,
      "vests": 2450,
      "öffent": 2451,
      "lined": 2452,
      "cutting": 2453,
      "cooking": 2454,
      "Outfit": 2455,
      "Gemü": 2456,
      "benutzt": 2457,
      "Volleyball": 2458,
      "Little": 2459,
      "Tür": 2460,
      "bem": 2461,
      "basket": 2462,
      "ham": 2463,
      "med": 2464,
      "eng": 2465,
      "orangen": 2466,
      "schüt": 2467,
      "raut": 2468,
      "Menge": 2469,
      "Mensch": 2470,
      "buildings": 2471,
      "break": 2472,
      "Baseballspieler": 2473,
      "cliff": 2474,
      "pulling": 2475,
      "newsp": 2476,
      "Surfer": 2477,
      "Alters": 2478,
      "Ak": 2479,
      "Ol": 2480,
      "gänger": 2481,
      "haus": 2482,
      "sort": 2483,
      "za": 2484,
      "anten": 2485,
      "strei": 2486,
      "Einige": 2487,
      "alley": 2488,
      "blank": 2489,
      "rider": 2490,
      "Schür": 2491,
      "lift": 2492,
      "streckt": 2493,
      "unterhält": 2494,
      "treten": 2495,
      "Uniform": 2496,
      "rädern": 2497,
      "Obst": 2498,
      "Girl": 2499,
      "Mund": 2500,
      "ffer": 2501,
      "gut": 2502,
      "mon": 2503,
      "tattoo": 2504,
      "var": 2505,
      "wrest": 2506,
      "stellt": 2507,
      "roof": 2508,
      "gew": 2509,
      "immen": 2510,
      "zusieht": 2511,
      "vege": 2512,
      "skop": 2513,
      "crossing": 2514,
      "nahe": 2515,
      "haariger": 2516,
      "appears": 2517,
      "practic": 2518,
      "großes": 2519,
      "bis": 2520,
      "but": 2521,
      "erin": 2522,
      "außer": 2523,
      "sta": 2524,
      "zuschaut": 2525,
      "edge": 2526,
      "nebeneinander": 2527,
      "Fußgänger": 2528,
      "mountains": 2529,
      "showing": 2530,
      "Reifen": 2531,
      "Mitte": 2532,
      "Weihn": 2533,
      "Sofa": 2534,
      "scheint": 2535,
      "blanket": 2536,
      "Kr": 2537,
      "Ufer": 2538,
      "cu": 2539,
      "nicht": 2540,
      "pot": 2541,
      "tball": 2542,
      "ühr": 2543,
      "unt": 2544,
      "arts": 2545,
      "gebäu": 2546,
      "offee": 2547,
      "oph": 2548,
      "bathing": 2549,
      "structure": 2550,
      "mult": 2551,
      "afri": 2552,
      "photograph": 2553,
      "boots": 2554,
      "verschieden": 2555,
      "Bu": 2556,
      "Chin": 2557,
      "Dies": 2558,
      "Kor": 2559,
      "Wett": 2560,
      "Ziegel": 2561,
      "bring": 2562,
      "fits": 2563,
      "fix": 2564,
      "kampf": 2565,
      "os": 2566,
      "pp": 2567,
      "sent": 2568,
      "tie": 2569,
      "vis": 2570,
      "erne": 2571,
      "auer": 2572,
      "shot": 2573,
      "achts": 2574,
      "Grill": 2575,
      "bubble": 2576,
      "snowboarder": 2577,
      "nearby": 2578,
      "nachts": 2579,
      "dresses": 2580,
      "performs": 2581,
      "Sonne": 2582,
      "Fotos": 2583,
      "horses": 2584,
      "Women": 2585,
      "kniet": 2586,
      "Roll": 2587,
      "skateboarder": 2588,
      "Einkaufs": 2589,
      "Schlagzeug": 2590,
      "jersey": 2591,
      "Typ": 2592,
      "country": 2593,
      "Gemüse": 2594,
      "Nacht": 2595,
      "Tro": 2596,
      "Zigarette": 2597,
      "av": 2598,
      "jungen": 2599,
      "pile": 2600,
      "rt": 2601,
      "inf": 2602,
      "aren": 2603,
      "ares": 2604,
      "rela": 2605,
      "raucht": 2606,
      "spre": 2607,
      "urch": 2608,
      "sicht": 2609,
      "apron": 2610,
      "carries": 2611,
      "few": 2612,
      "versuchen": 2613,
      "Art": 2614,
      "hinten": 2615,
      "Asiat": 2616,
      "driving": 2617,
      "Herr": 2618,
      "yclists": 2619,
      "friends": 2620,
      "Gegenstand": 2621,
      "violet": 2622,
      "Braut": 2623,
      "Con": 2624,
      "Fa": 2625,
      "Hals": 2626,
      "Ker": 2627,
      "Kra": 2628,
      "Nummer": 2629,
      "bild": 2630,
      "bärt": 2631,
      "ear": 2632,
      "mask": 2633,
      "ery": 2634,
      "cker": 2635,
      "beige": 2636,
      "zeu": 2637,
      "key": 2638,
      "biker": 2639,
      "iges": 2640,
      "uchten": 2641,
      "goal": 2642,
      "teams": 2643,
      "kurz": 2644,
      "leaves": 2645,
      "cake": 2646,
      "bowling": 2647,
      "beobachten": 2648,
      "trinken": 2649,
      "utscht": 2650,
      "Group": 2651,
      "mehreren": 2652,
      "Bett": 2653,
      "He": 2654,
      "Part": 2655,
      "Zelt": 2656,
      "cigarette": 2657,
      "fängt": 2658,
      "mir": 2659,
      "sol": 2660,
      "ty": 2661,
      "imer": 2662,
      "boo": 2663,
      "urban": 2664,
      "dents": 2665,
      "Schal": 2666,
      "cars": 2667,
      "feet": 2668,
      "farbener": 2669,
      "Armen": 2670,
      "mud": 2671,
      "parked": 2672,
      "gogg": 2673,
      "paint": 2674,
      "painted": 2675,
      "Veranstaltung": 2676,
      "Pfad": 2677,
      "Läufer": 2678,
      "Tau": 2679,
      "bb": 2680,
      "biet": 2681,
      "fun": 2682,
      "fre": 2683,
      "hund": 2684,
      "mother": 2685,
      "pl": 2686,
      "turn": 2687,
      "wr": 2688,
      "schm": 2689,
      "railing": 2690,
      "Mannschaft": 2691,
      "how": 2692,
      "haki": 2693,
      "farbenfro": 2694,
      "talks": 2695,
      "werfen": 2696,
      "Rodeo": 2697,
      "Trikots": 2698,
      "display": 2699,
      "Snowboarder": 2700,
      "Flagge": 2701,
      "vendor": 2702,
      "öffentlichen": 2703,
      "goggles": 2704,
      "Back": 2705,
      "Ferne": 2706,
      "Spe": 2707,
      "hof": 2708,
      "ifor": 2709,
      "rutscht": 2710,
      "ton": 2711,
      "zert": 2712,
      "einsam": 2713,
      "stelle": 2714,
      "ely": 2715,
      "rap": 2716,
      "weit": 2717,
      "Stü": 2718,
      "Stange": 2719,
      "beide": 2720,
      "geln": 2721,
      "wait": 2722,
      "Handt": 2723,
      "rotes": 2724,
      "lasche": 2725,
      "Stufen": 2726,
      "betrachten": 2727,
      "flying": 2728,
      "gleich": 2729,
      "drums": 2730,
      "smoking": 2731,
      "martial": 2732,
      "Garten": 2733,
      "vehicle": 2734,
      "bottle": 2735,
      "verschneiten": 2736,
      "Schürze": 2737,
      "Weihnachts": 2738,
      "Bow": 2739,
      "Kap": 2740,
      "Rampe": 2741,
      "Sei": 2742,
      "Wanderer": 2743,
      "bers": 2744,
      "brush": 2745,
      "coffee": 2746,
      "ssi": 2747,
      "üst": 2748,
      "ches": 2749,
      "beu": 2750,
      "skleid": 2751,
      "fern": 2752,
      "grüner": 2753,
      "concert": 2754,
      "surfer": 2755,
      "rocky": 2756,
      "Gehsteig": 2757,
      "kommen": 2758,
      "eyes": 2759,
      "Laden": 2760,
      "Vorder": 2761,
      "Sit": 2762,
      "eth": 2763,
      "ous": 2764,
      "por": 2765,
      "eling": 2766,
      "isen": 2767,
      "orient": 2768,
      "spra": 2769,
      "splas": 2770,
      "uring": 2771,
      "Stre": 2772,
      "Schw": 2773,
      "younger": 2774,
      "waves": 2775,
      "änzer": 2776,
      "Boy": 2777,
      "safet": 2778,
      "jackets": 2779,
      "coming": 2780,
      "swinging": 2781,
      "prepares": 2782,
      "viele": 2783,
      "gebung": 2784,
      "folgt": 2785,
      "kicking": 2786,
      "flags": 2787,
      "conversation": 2788,
      "Indian": 2789,
      "Lebensmittel": 2790,
      "newspaper": 2791,
      "relax": 2792,
      "safety": 2793,
      "Tanz": 2794,
      "case": 2795,
      "kr": 2796,
      "min": 2797,
      "nic": 2798,
      "tu": 2799,
      "unk": 2800,
      "leuchten": 2801,
      "reden": 2802,
      "ric": 2803,
      "hold": 2804,
      "inkt": 2805,
      "farb": 2806,
      "differ": 2807,
      "blonden": 2808,
      "close": 2809,
      "itary": 2810,
      "parking": 2811,
      "Geld": 2812,
      "bunch": 2813,
      "Tennisball": 2814,
      "ziehen": 2815,
      "costumes": 2816,
      "cooter": 2817,
      "Surf": 2818,
      "Kostüm": 2819,
      "gentleman": 2820,
      "gloves": 2821,
      "spectators": 2822,
      "practicing": 2823,
      "außerhalb": 2824,
      "oriental": 2825,
      "Kn": 2826,
      "Turn": 2827,
      "Vo": 2828,
      "ace": 2829,
      "cement": 2830,
      "ians": 2831,
      "pon": 2832,
      "su": 2833,
      "scooter": 2834,
      "äl": 2835,
      "onlook": 2836,
      "sty": 2837,
      "this": 2838,
      "assi": 2839,
      "etz": 2840,
      "schwing": 2841,
      "gras": 2842,
      "there": 2843,
      "hoo": 2844,
      "untergang": 2845,
      "cleaning": 2846,
      "guckt": 2847,
      "scul": 2848,
      "Musiker": 2849,
      "Basketballspieler": 2850,
      "competition": 2851,
      "New": 2852,
      "Kostümen": 2853,
      "listening": 2854,
      "scene": 2855,
      "ladder": 2856,
      "bearded": 2857,
      "bärtiger": 2858,
      "Bowling": 2859,
      "different": 2860,
      "Po": 2861,
      "Swe": 2862,
      "dass": 2863,
      "käufer": 2864,
      "lück": 2865,
      "mütze": 2866,
      "ual": 2867,
      "iness": 2868,
      "items": 2869,
      "staring": 2870,
      "Statue": 2871,
      "blaues": 2872,
      "lange": 2873,
      "dessen": 2874,
      "Fahrzeug": 2875,
      "bikini": 2876,
      "surft": 2877,
      "produ": 2878,
      "Telefon": 2879,
      "Sonnenuntergang": 2880,
      "nah": 2881,
      "skateboarding": 2882,
      "zurück": 2883,
      "hört": 2884,
      "Snowboard": 2885,
      "Skifahrer": 2886,
      "Instrumen": 2887,
      "Plastik": 2888,
      "Cheerlea": 2889,
      "greift": 2890,
      "Brunnen": 2891,
      "Damen": 2892,
      "Hu": 2893,
      "cy": 2894,
      "sl": 2895,
      "same": 2896,
      "audien": 2897,
      "emon": 2898,
      "lawn": 2899,
      "rais": 2900,
      "upp": 2901,
      "ural": 2902,
      "ical": 2903,
      "counter": 2904,
      "desk": 2905,
      "meal": 2906,
      "füll": 2907,
      "bicycles": 2908,
      "giving": 2909,
      "liches": 2910,
      "ivid": 2911,
      "Aufschrift": 2912,
      "öffnet": 2913,
      "gelbem": 2914,
      "drinks": 2915,
      "Schüler": 2916,
      "balloon": 2917,
      "hilft": 2918,
      "fotografiert": 2919,
      "köpf": 2920,
      "empty": 2921,
      "Kleidern": 2922,
      "various": 2923,
      "iformen": 2924,
      "Kapu": 2925,
      "beugt": 2926,
      "audience": 2927,
      "Clo": 2928,
      "Klassen": 2929,
      "able": 2930,
      "hei": 2931,
      "if": 2932,
      "mem": 2933,
      "wander": 2934,
      "aub": 2935,
      "stän": 2936,
      "issen": 2937,
      "ator": 2938,
      "rop": 2939,
      "rodeo": 2940,
      "among": 2941,
      "Stro": 2942,
      "Schie": 2943,
      "liert": 2944,
      "beiden": 2945,
      "endet": 2946,
      "ausrüstung": 2947,
      "gelbe": 2948,
      "ctive": 2949,
      "froamerikan": 2950,
      "Arme": 2951,
      "pflaster": 2952,
      "ktion": 2953,
      "besch": 2954,
      "klettern": 2955,
      "Hüten": 2956,
      "Someone": 2957,
      "Tour": 2958,
      "männliche": 2959,
      "Polizist": 2960,
      "leaps": 2961,
      "städtischen": 2962,
      "Vogel": 2963,
      "onlookers": 2964,
      "Bre": 2965,
      "Bes": 2966,
      "Kletter": 2967,
      "Maschine": 2968,
      "Pass": 2969,
      "cat": 2970,
      "cra": 2971,
      "cting": 2972,
      "card": 2973,
      "mall": 2974,
      "mauer": 2975,
      "unbefest": 2976,
      "gets": 2977,
      "schreibt": 2978,
      "laden": 2979,
      "uppen": 2980,
      "apan": 2981,
      "Leiter": 2982,
      "artist": 2983,
      "Sechs": 2984,
      "lights": 2985,
      "cord": 2986,
      "gathering": 2987,
      "bowl": 2988,
      "block": 2989,
      "sliding": 2990,
      "silver": 2991,
      "überquert": 2992,
      "schlagen": 2993,
      "pointing": 2994,
      "schönen": 2995,
      "Polizisten": 2996,
      "bird": 2997,
      "Haare": 2998,
      "platform": 2999,
      "screen": 3000,
      "vegetables": 3001,
      "gebäude": 3002,
      "skleidung": 3003,
      "Bul": 3004,
      "Dre": 3005,
      "Lap": 3006,
      "Rand": 3007,
      "cers": 3008,
      "cts": 3009,
      "fei": 3010,
      "fig": 3011,
      "ging": 3012,
      "que": 3013,
      "sof": 3014,
      "thaar": 3015,
      "sports": 3016,
      "oper": 3017,
      "hed": 3018,
      "individ": 3019,
      "ssel": 3020,
      "streets": 3021,
      "dio": 3022,
      "facing": 3023,
      "abge": 3024,
      "obser": 3025,
      "ünger": 3026,
      "plane": 3027,
      "versammeln": 3028,
      "kay": 3029,
      "surfboard": 3030,
      "photograp": 3031,
      "nacktem": 3032,
      "chasing": 3033,
      "Kampfsport": 3034,
      "Bei": 3035,
      "Six": 3036,
      "Tank": 3037,
      "cir": 3038,
      "gie": 3039,
      "mä": 3040,
      "uz": 3041,
      "xoph": 3042,
      "tow": 3043,
      "bli": 3044,
      "blasen": 3045,
      "before": 3046,
      "neck": 3047,
      "stret": 3048,
      "keit": 3049,
      "clown": 3050,
      "stern": 3051,
      "eps": 3052,
      "helmets": 3053,
      "surfing": 3054,
      "competing": 3055,
      "Weiß": 3056,
      "wedding": 3057,
      "speaking": 3058,
      "happy": 3059,
      "gestreiftem": 3060,
      "Sweatshirt": 3061,
      "Kids": 3062,
      "Leine": 3063,
      "Mil": 3064,
      "Rot": 3065,
      "Rutsche": 3066,
      "Vater": 3067,
      "bung": 3068,
      "bad": 3069,
      "ced": 3070,
      "jünger": 3071,
      "leeren": 3072,
      "rothaar": 3073,
      "tops": 3074,
      "füt": 3075,
      "business": 3076,
      "gaz": 3077,
      "cano": 3078,
      "tries": 3079,
      "asiatischen": 3080,
      "lauch": 3081,
      "beleucht": 3082,
      "Schuhen": 3083,
      "huge": 3084,
      "classroom": 3085,
      "Bikini": 3086,
      "Konzert": 3087,
      "Eimer": 3088,
      "Gol": 3089,
      "Waren": 3090,
      "York": 3091,
      "fir": 3092,
      "enden": 3093,
      "ings": 3094,
      "lesen": 3095,
      "ischt": 3096,
      "boden": 3097,
      "Schlä": 3098,
      "verw": 3099,
      "waits": 3100,
      "dreht": 3101,
      "sings": 3102,
      "farbenem": 3103,
      "ages": 3104,
      "blonder": 3105,
      "bride": 3106,
      "talk": 3107,
      "Kopfhör": 3108,
      "zeich": 3109,
      "jog": 3110,
      "Westen": 3111,
      "purse": 3112,
      "students": 3113,
      "bedeckt": 3114,
      "climbs": 3115,
      "Wohn": 3116,
      "sticks": 3117,
      "genießen": 3118,
      "iefeln": 3119,
      "traditional": 3120,
      "schwimmen": 3121,
      "Marathon": 3122,
      "Parade": 3123,
      "fighting": 3124,
      "Soldaten": 3125,
      "Korb": 3126,
      "unbefestig": 3127,
      "Aben": 3128,
      "Diese": 3129,
      "Fle": 3130,
      "Tänzer": 3131,
      "Wellen": 3132,
      "pier": 3133,
      "prü": 3134,
      "rein": 3135,
      "sal": 3136,
      "öcken": 3137,
      "unch": 3138,
      "recht": 3139,
      "eibe": 3140,
      "lam": 3141,
      "town": 3142,
      "decor": 3143,
      "bewachsen": 3144,
      "seen": 3145,
      "watte": 3146,
      "ugby": 3147,
      "hole": 3148,
      "crouch": 3149,
      "chef": 3150,
      "latt": 3151,
      "ärmel": 3152,
      "Trick": 3153,
      "Badeanzug": 3154,
      "silber": 3155,
      "gemeinsam": 3156,
      "Umgebung": 3157,
      "kissing": 3158,
      "Getränk": 3159,
      "jagt": 3160,
      "Müll": 3161,
      "violin": 3162,
      "military": 3163,
      "animal": 3164,
      "sprechen": 3165,
      "mirro": 3166,
      "Stühlen": 3167,
      "Seifen": 3168,
      "Kaf": 3169,
      "Over": 3170,
      "bau": 3171,
      "gun": 3172,
      "khaki": 3173,
      "nur": 3174,
      "nap": 3175,
      "ohne": 3176,
      "rie": 3177,
      "sucht": 3178,
      "well": 3179,
      "stroller": 3180,
      "ession": 3181,
      "wobei": 3182,
      "lack": 3183,
      "ieht": 3184,
      "ily": 3185,
      "ilder": 3186,
      "amp": 3187,
      "urf": 3188,
      "entspan": 3189,
      "län": 3190,
      "gelbes": 3191,
      "walkway": 3192,
      "skating": 3193,
      "cheer": 3194,
      "Leder": 3195,
      "gekleideten": 3196,
      "protest": 3197,
      "Mikrophon": 3198,
      "exam": 3199,
      "Motorradfahrer": 3200,
      "marathon": 3201,
      "Geländem": 3202,
      "elect": 3203,
      "litten": 3204,
      "Ende": 3205,
      "afrikan": 3206,
      "writing": 3207,
      "Hal": 3208,
      "Künstler": 3209,
      "Ohr": 3210,
      "Wass": 3211,
      "ffen": 3212,
      "iff": 3213,
      "icher": 3214,
      "maschine": 3215,
      "inmitten": 3216,
      "alk": 3217,
      "ord": 3218,
      "ete": 3219,
      "dert": 3220,
      "oline": 3221,
      "richter": 3222,
      "Stand": 3223,
      "outfits": 3224,
      "lanzen": 3225,
      "skier": 3226,
      "braunem": 3227,
      "grüne": 3228,
      "diving": 3229,
      "prof": 3230,
      "ückt": 3231,
      "grauem": 3232,
      "females": 3233,
      "sunset": 3234,
      "ustom": 3235,
      "gegenüber": 3236,
      "hängen": 3237,
      "Erwachsenen": 3238,
      "Erwachsener": 3239,
      "hüp": 3240,
      "Regenschirm": 3241,
      "riesigen": 3242,
      "starrt": 3243,
      "kneeling": 3244,
      "shoulder": 3245,
      "Schutzhelm": 3246,
      "schwingt": 3247,
      "Wassers": 3248,
      "El": 3249,
      "Hö": 3250,
      "Work": 3251,
      "cand": 3252,
      "fin": 3253,
      "jak": 3254,
      "rink": 3255,
      "tire": 3256,
      "indoor": 3257,
      "angel": 3258,
      "legen": 3259,
      "lay": 3260,
      "weibli": 3261,
      "beg": 3262,
      "rist": 3263,
      "wear": 3264,
      "umm": 3265,
      "berühr": 3266,
      "waters": 3267,
      "lät": 3268,
      "anderes": 3269,
      "waving": 3270,
      "Gegend": 3271,
      "runner": 3272,
      "Handschuhen": 3273,
      "Fahrer": 3274,
      "älteren": 3275,
      "Parkplatz": 3276,
      "Uniformen": 3277,
      "partic": 3278,
      "Sohn": 3279,
      "Kajak": 3280,
      "Instrument": 3281,
      "Werk": 3282,
      "attempting": 3283,
      "sculp": 3284,
      "mirror": 3285,
      "Lauf": 3286,
      "bst": 3287,
      "ecke": 3288,
      "five": 3289,
      "tack": 3290,
      "ätow": 3291,
      "err": 3292,
      "atur": 3293,
      "touch": 3294,
      "alls": 3295,
      "ters": 3296,
      "bew": 3297,
      "Scho": 3298,
      "Schreibt": 3299,
      "verkleidet": 3300,
      "life": 3301,
      "cele": 3302,
      "made": 3303,
      "makes": 3304,
      "Kinderwagen": 3305,
      "father": 3306,
      "clou": 3307,
      "pinkfarbenen": 3308,
      "Gebäuden": 3309,
      "Shirts": 3310,
      "Bergen": 3311,
      "Bereich": 3312,
      "Straßenrand": 3313,
      "Straßenecke": 3314,
      "signs": 3315,
      "rolling": 3316,
      "lächelnd": 3317,
      "putzt": 3318,
      "enjoy": 3319,
      "course": 3320,
      "Treppen": 3321,
      "offenen": 3322,
      "balanc": 3323,
      "blowing": 3324,
      "öpfen": 3325,
      "Skateboarder": 3326,
      "hammer": 3327,
      "Party": 3328,
      "Geländemotor": 3329,
      "Fern": 3330,
      "Kat": 3331,
      "Kir": 3332,
      "Na": 3333,
      "Sänger": 3334,
      "Wh": 3335,
      "Wasch": 3336,
      "base": 3337,
      "bald": 3338,
      "craft": 3339,
      "dru": 3340,
      "kten": 3341,
      "“.": 3342,
      "ining": 3343,
      "chain": 3344,
      "ary": 3345,
      "auch": 3346,
      "sting": 3347,
      "stwagen": 3348,
      "refle": 3349,
      "ative": 3350,
      "irgend": 3351,
      "schaf": 3352,
      "umarm": 3353,
      "seite": 3354,
      "icol": 3355,
      "advert": 3356,
      "schwarzes": 3357,
      "ellung": 3358,
      "singen": 3359,
      "overlooking": 3360,
      "says": 3361,
      "Baustelle": 3362,
      "garden": 3363,
      "kostü": 3364,
      "ugging": 3365,
      "ritzt": 3366,
      "burg": 3367,
      "gymna": 3368,
      "officer": 3369,
      "multicol": 3370,
      "bubbles": 3371,
      "electric": 3372,
      "Schoß": 3373,
      "celebr": 3374,
      "Geländemotorrad": 3375,
      "umarmt": 3376,
      "advertis": 3377,
      "BM": 3378,
      "Gei": 3379,
      "Kuchen": 3380,
      "Pause": 3381,
      "Tur": 3382,
      "Za": 3383,
      "lung": 3384,
      "not": 3385,
      "pil": 3386,
      "wrap": 3387,
      "leans": 3388,
      "leash": 3389,
      "gepflaster": 3390,
      "orn": 3391,
      "irmen": 3392,
      "allow": 3393,
      "tran": 3394,
      "hood": 3395,
      "ulpt": 3396,
      "Spring": 3397,
      "fast": 3398,
      "Jacken": 3399,
      "collar": 3400,
      "steigen": 3401,
      "setzt": 3402,
      "sled": 3403,
      "grünes": 3404,
      "orangefarbener": 3405,
      "golf": 3406,
      "balloons": 3407,
      "dunkelhäutiger": 3408,
      "fixing": 3409,
      "Krawatte": 3410,
      "Backstein": 3411,
      "grasbewachsen": 3412,
      "Clown": 3413,
      "ulptur": 3414,
      "Fü": 3415,
      "Mob": 3416,
      "Netz": 3417,
      "Tier": 3418,
      "act": 3419,
      "cas": 3420,
      "cont": 3421,
      "eben": 3422,
      "glie": 3423,
      "hall": 3424,
      "ia": 3425,
      "ker": 3426,
      "prin": 3427,
      "ritt": 3428,
      "öl": 3429,
      "ino": 3430,
      "einge": 3431,
      "augh": 3432,
      "alone": 3433,
      "gegner": 3434,
      "tool": 3435,
      "Schatten": 3436,
      "verkaufen": 3437,
      "ward": 3438,
      "warm": 3439,
      "ierte": 3440,
      "Spiegel": 3441,
      "runette": 3442,
      "schauk": 3443,
      "contain": 3444,
      "faces": 3445,
      "helping": 3446,
      "gestellt": 3447,
      "llas": 3448,
      "räder": 3449,
      "leather": 3450,
      "musicians": 3451,
      "prepare": 3452,
      "Tennisspieler": 3453,
      "brightly": 3454,
      "Gelände": 3455,
      "umbrellas": 3456,
      "foreground": 3457,
      "repariert": 3458,
      "Jugendlicher": 3459,
      "Construction": 3460,
      "plate": 3461,
      "Vordergrund": 3462,
      "Schreibtisch": 3463,
      "Blau": 3464,
      "Dra": 3465,
      "Fell": 3466,
      "Sicher": 3467,
      "Taschen": 3468,
      "daugh": 3469,
      "ganz": 3470,
      "glück": 3471,
      "ners": 3472,
      "ufer": 3473,
      "van": 3474,
      "ched": 3475,
      "leep": 3476,
      "aler": 3477,
      "esch": 3478,
      "asleep": 3479,
      "tocross": 3480,
      "lossen": 3481,
      "Schlitten": 3482,
      "strecke": 3483,
      "ffic": 3484,
      "Fels": 3485,
      "Fahrradfahrer": 3486,
      "meat": 3487,
      "gekleidetes": 3488,
      "headphones": 3489,
      "good": 3490,
      "vollen": 3491,
      "Sandalen": 3492,
      "hellhäut": 3493,
      "giant": 3494,
      "gegeneinander": 3495,
      "kurzer": 3496,
      "Schnau": 3497,
      "Schulter": 3498,
      "legs": 3499,
      "Flugzeug": 3500,
      "verschiedene": 3501,
      "Einkaufswagen": 3502,
      "füllten": 3503,
      "particip": 3504,
      "sculpture": 3505,
      "Es": 3506,
      "Im": 3507,
      "Kunden": 3508,
      "Mat": 3509,
      "Train": 3510,
      "baum": 3511,
      "custom": 3512,
      "dish": 3513,
      "eping": 3514,
      "mix": 3515,
      "prä": 3516,
      "tunnel": 3517,
      "vice": 3518,
      "video": 3519,
      "zä": 3520,
      "ants": 3521,
      "chte": 3522,
      "itten": 3523,
      "itär": 3524,
      "reiten": 3525,
      "atz": 3526,
      "deon": 3527,
      "bot": 3528,
      "uper": 3529,
      "log": 3530,
      "wears": 3531,
      "Ste": 3532,
      "grocer": 3533,
      "heav": 3534,
      "trash": 3535,
      "angezogen": 3536,
      "worfen": 3537,
      "Fahrrädern": 3538,
      "washing": 3539,
      "dsrichter": 3540,
      "anken": 3541,
      "office": 3542,
      "lett": 3543,
      "repair": 3544,
      "doorway": 3545,
      "afé": 3546,
      "prote": 3547,
      "project": 3548,
      "sandals": 3549,
      "asiatisches": 3550,
      "falling": 3551,
      "swings": 3552,
      "passing": 3553,
      "Footballspieler": 3554,
      "Koch": 3555,
      "schuh": 3556,
      "lippe": 3557,
      "drawing": 3558,
      "korb": 3559,
      "jemandem": 3560,
      "stadium": 3561,
      "Old": 3562,
      "Schläger": 3563,
      "balanciert": 3564,
      "Mobil": 3565,
      "Bein": 3566,
      "Blät": 3567,
      "Kop": 3568,
      "Tra": 3569,
      "fra": 3570,
      "ift": 3571,
      "nung": 3572,
      "ras": 3573,
      "scope": 3574,
      "tau": 3575,
      "wunder": 3576,
      "winkt": 3577,
      "cho": 3578,
      "chines": 3579,
      "string": 3580,
      "mance": 3581,
      "aufel": 3582,
      "toys": 3583,
      "raum": 3584,
      "sition": 3585,
      "rier": 3586,
      "Stiefeln": 3587,
      "Schlauch": 3588,
      "formance": 3589,
      "post": 3590,
      "Angel": 3591,
      "durchs": 3592,
      "Felsw": 3593,
      "illen": 3594,
      "held": 3595,
      "heads": 3596,
      "Büro": 3597,
      "llen": 3598,
      "stuff": 3599,
      "studio": 3600,
      "Pferden": 3601,
      "Erde": 3602,
      "schläger": 3603,
      "Verkehr": 3604,
      "musical": 3605,
      "gebiet": 3606,
      "accord": 3607,
      "Badehose": 3608,
      "küsst": 3609,
      "skiing": 3610,
      "officers": 3611,
      "Hochzeit": 3612,
      "hiking": 3613,
      "fällt": 3614,
      "schütt": 3615,
      "Akkor": 3616,
      "nahme": 3617,
      "Schiedsrichter": 3618,
      "photographer": 3619,
      "canoe": 3620,
      "multicolored": 3621,
      "Mobiltelefon": 3622,
      "accordion": 3623,
      "Base": 3624,
      "Chr": 3625,
      "Reit": 3626,
      "Sal": 3627,
      "Ta": 3628,
      "sack": 3629,
      "wich": 3630,
      "inclu": 3631,
      "anne": 3632,
      "church": 3633,
      "armen": 3634,
      "statt": 3635,
      "stellen": 3636,
      "aufger": 3637,
      "ildern": 3638,
      "bewe": 3639,
      "booth": 3640,
      "spen": 3641,
      "shallow": 3642,
      "locks": 3643,
      "sea": 3644,
      "ached": 3645,
      "bereich": 3646,
      "heben": 3647,
      "heraus": 3648,
      "ugel": 3649,
      "males": 3650,
      "mob": 3651,
      "performance": 3652,
      "reppe": 3653,
      "aded": 3654,
      "dirty": 3655,
      "hellbrauner": 3656,
      "laptop": 3657,
      "orangefarbenem": 3658,
      "picking": 3659,
      "teenage": 3660,
      "throws": 3661,
      "reaching": 3662,
      "barefoot": 3663,
      "Halsband": 3664,
      "Surfbrett": 3665,
      "Kapuzen": 3666,
      "Klassenzimmer": 3667,
      "Golf": 3668,
      "profession": 3669,
      "Felswand": 3670,
      "Akkordeon": 3671,
      "Fall": 3672,
      "Ke": 3673,
      "Sä": 3674,
      "Teil": 3675,
      "US": 3676,
      "Zimmer": 3677,
      "ddle": 3678,
      "ee": 3679,
      "iste": 3680,
      "ju": 3681,
      "kw": 3682,
      "kat": 3683,
      "lü": 3684,
      "nf": 3685,
      "port": 3686,
      "sä": 3687,
      "wär": 3688,
      "ckten": 3689,
      "aske": 3690,
      "aufge": 3691,
      "lab": 3692,
      "laund": 3693,
      "ama": 3694,
      "ign": 3695,
      "traffic": 3696,
      "most": 3697,
      "davor": 3698,
      "clean": 3699,
      "halle": 3700,
      "Skater": 3701,
      "Oberteilen": 3702,
      "wegs": 3703,
      "fünf": 3704,
      "zeigen": 3705,
      "lächelnde": 3706,
      "straw": 3707,
      "anzügen": 3708,
      "kann": 3709,
      "belebte": 3710,
      "below": 3711,
      "Loch": 3712,
      "Kanu": 3713,
      "äume": 3714,
      "digging": 3715,
      "Chinese": 3716,
      "schmutz": 3717,
      "unbefestigten": 3718,
      "Fleisch": 3719,
      "Höhe": 3720,
      "BMX": 3721,
      "Sicherhe": 3722,
      "daughter": 3723,
      "Christ": 3724,
      "Al": 3725,
      "Ban": 3726,
      "Bru": 3727,
      "Ele": 3728,
      "Hot": 3729,
      "Japan": 3730,
      "Pick": 3731,
      "aß": 3732,
      "brunnen": 3733,
      "fuß": 3734,
      "gan": 3735,
      "hugging": 3736,
      "jugg": 3737,
      "seines": 3738,
      "tor": 3739,
      "zaun": 3740,
      "ähn": 3741,
      "erwachsen": 3742,
      "einz": 3743,
      "auss": 3744,
      "ones": 3745,
      "atop": 3746,
      "ature": 3747,
      "etten": 3748,
      "irn": 3749,
      "ils": 3750,
      "blä": 3751,
      "spot": 3752,
      "upside": 3753,
      "lock": 3754,
      "ricket": 3755,
      "balls": 3756,
      "teach": 3757,
      "redet": 3758,
      "ugs": 3759,
      "hoop": 3760,
      "fert": 3761,
      "feren": 3762,
      "keiten": 3763,
      "ruh": 3764,
      "fahrzeug": 3765,
      "guard": 3766,
      "dancers": 3767,
      "Innen": 3768,
      "steigt": 3769,
      "Fußballspiel": 3770,
      "Pferde": 3771,
      "gives": 3772,
      "microscope": 3773,
      "passes": 3774,
      "Lastwagen": 3775,
      "even": 3776,
      "catching": 3777,
      "catches": 3778,
      "Schuhe": 3779,
      "Mountain": 3780,
      "club": 3781,
      "direction": 3782,
      "Kreis": 3783,
      "relaxing": 3784,
      "leuchtend": 3785,
      "suspen": 3786,
      "Laptop": 3787,
      "Seifenblasen": 3788,
      "weibliche": 3789,
      "schaften": 3790,
      "aussieht": 3791,
      "Ecke": 3792,
      "Gu": 3793,
      "Kur": 3794,
      "Nach": 3795,
      "Tischen": 3796,
      "brunette": 3797,
      "cial": 3798,
      "dach": 3799,
      "fan": 3800,
      "fing": 3801,
      "fil": 3802,
      "figh": 3803,
      "flies": 3804,
      "hur": 3805,
      "ipe": 3806,
      "ife": 3807,
      "kre": 3808,
      "ou": 3809,
      "sern": 3810,
      "uals": 3811,
      "zz": 3812,
      "öh": 3813,
      "unks": 3814,
      "stunt": 3815,
      "rec": 3816,
      "gepark": 3817,
      "schild": 3818,
      "offer": 3819,
      "deep": 3820,
      "bly": 3821,
      "bekleidet": 3822,
      "spor": 3823,
      "weste": 3824,
      "seum": 3825,
      "Schaufen": 3826,
      "Schlange": 3827,
      "iern": 3828,
      "holt": 3829,
      "ists": 3830,
      "frisch": 3831,
      "Spaß": 3832,
      "paved": 3833,
      "füllt": 3834,
      "resting": 3835,
      "sweeping": 3836,
      "nav": 3837,
      "sleeps": 3838,
      "cafe": 3839,
      "shows": 3840,
      "follow": 3841,
      "Pflanzen": 3842,
      "lines": 3843,
      "gleitet": 3844,
      "küssen": 3845,
      "golden": 3846,
      "verschiedenen": 3847,
      "leaping": 3848,
      "Dog": 3849,
      "bemalt": 3850,
      "Kranken": 3851,
      "Kaffee": 3852,
      "kostüm": 3853,
      "Schnauze": 3854,
      "Christmas": 3855,
      "Black": 3856,
      "Bäume": 3857,
      "Lab": 3858,
      "Ra": 3859,
      "Rück": 3860,
      "Teich": 3861,
      "Tramp": 3862,
      "Wü": 3863,
      "Wind": 3864,
      "Zei": 3865,
      "aks": 3866,
      "belt": 3867,
      "cus": 3868,
      "eat": 3869,
      "hes": 3870,
      "pun": 3871,
      "pond": 3872,
      "xi": 3873,
      "itz": 3874,
      "stor": 3875,
      "lege": 3876,
      "anda": 3877,
      "oren": 3878,
      "ird": 3879,
      "tour": 3880,
      "illt": 3881,
      "destri": 3882,
      "tert": 3883,
      "rick": 3884,
      "Stirn": 3885,
      "step": 3886,
      "teles": 3887,
      "teeth": 3888,
      "wards": 3889,
      "ited": 3890,
      "tron": 3891,
      "trunks": 3892,
      "appro": 3893,
      "ister": 3894,
      "skin": 3895,
      "tracks": 3896,
      "tramp": 3897,
      "indernis": 3898,
      "formal": 3899,
      "formation": 3900,
      "singer": 3901,
      "stehende": 3902,
      "desert": 3903,
      "eilen": 3904,
      "move": 3905,
      "fahrt": 3906,
      "dient": 3907,
      "Spielfeld": 3908,
      "Luftball": 3909,
      "shoe": 3910,
      "fully": 3911,
      "Tepp": 3912,
      "Stadion": 3913,
      "geschm": 3914,
      "geschlossen": 3915,
      "coats": 3916,
      "Mikroskop": 3917,
      "athlet": 3918,
      "komp": 3919,
      "marsch": 3920,
      "present": 3921,
      "Objekt": 3922,
      "Tochter": 3923,
      "schlafen": 3924,
      "lilafarbenen": 3925,
      "Schultern": 3926,
      "Rennstrecke": 3927,
      "Gerüst": 3928,
      "conversing": 3929,
      "Schlamm": 3930,
      "scaff": 3931,
      "Tromm": 3932,
      "farbenfrohen": 3933,
      "hoodie": 3934,
      "köpfiger": 3935,
      "Tanktop": 3936,
      "circle": 3937,
      "salon": 3938,
      "gepflasterten": 3939,
      "grasbewachsenen": 3940,
      "Kopft": 3941,
      "Café": 3942,
      "Flasche": 3943,
      "Haufen": 3944,
      "Kappe": 3945,
      "Mö": 3946,
      "Oly": 3947,
      "Ring": 3948,
      "Tasse": 3949,
      "cyclist": 3950,
      "fair": 3951,
      "fliegen": 3952,
      "gate": 3953,
      "jong": 3954,
      "nick": 3955,
      "slo": 3956,
      "uh": 3957,
      "wen": 3958,
      "wind": 3959,
      "entr": 3960,
      "ital": 3961,
      "stack": 3962,
      "stellung": 3963,
      "leucht": 3964,
      "elf": 3965,
      "ged": 3966,
      "gezogen": 3967,
      "eter": 3968,
      "racket": 3969,
      "blü": 3970,
      "bec": 3971,
      "bewer": 3972,
      "bogen": 3973,
      "neath": 3974,
      "wea": 3975,
      "Schaufel": 3976,
      "Hunden": 3977,
      "stream": 3978,
      "hou": 3979,
      "Anz": 3980,
      "gerät": 3981,
      "check": 3982,
      "zene": 3983,
      "closed": 3984,
      "must": 3985,
      "cold": 3986,
      "gucken": 3987,
      "comple": 3988,
      "jogging": 3989,
      "underneath": 3990,
      "tricks": 3991,
      "Verkauf": 3992,
      "eye": 3993,
      "balcon": 3994,
      "karate": 3995,
      "plants": 3996,
      "hügel": 3997,
      "sleeve": 3998,
      "kocht": 3999,
      "Karate": 4000,
      "Kai": 4001,
      "points": 4002,
      "männlicher": 4003,
      "hören": 4004,
      "wrestling": 4005,
      "violetten": 4006,
      "splashing": 4007,
      "Cheerleader": 4008,
      "Hula": 4009,
      "Overall": 4010,
      "Kirche": 4011,
      "Geige": 4012,
      "telescope": 4013,
      "\".": 4014,
      "AT": 4015,
      "Ex": 4016,
      "Hindernis": 4017,
      "Jahr": 4018,
      "Lie": 4019,
      "Qu": 4020,
      "San": 4021,
      "Small": 4022,
      "Video": 4023,
      "Wel": 4024,
      "Zä": 4025,
      "afe": 4026,
      "afroamerikan": 4027,
      "bü": 4028,
      "kappe": 4029,
      "künstler": 4030,
      "pin": 4031,
      "wur": 4032,
      "äck": 4033,
      "inn": 4034,
      "robe": 4035,
      "gesp": 4036,
      "siz": 4037,
      "without": 4038,
      "beam": 4039,
      "sprin": 4040,
      "neon": 4041,
      "umarmen": 4042,
      "ides": 4043,
      "tren": 4044,
      "position": 4045,
      "bush": 4046,
      "unterwegs": 4047,
      "ittel": 4048,
      "magaz": 4049,
      "moving": 4050,
      "bath": 4051,
      "halt": 4052,
      "shoo": 4053,
      "dances": 4054,
      "samm": 4055,
      "Parkbank": 4056,
      "grauer": 4057,
      "themsel": 4058,
      "cane": 4059,
      "asiatisch": 4060,
      "hellen": 4061,
      "schnell": 4062,
      "festival": 4063,
      "Baumst": 4064,
      "Helmen": 4065,
      "Küste": 4066,
      "Meeres": 4067,
      "felsi": 4068,
      "linie": 4069,
      "self": 4070,
      "Schuh": 4071,
      "kahl": 4072,
      "Freunden": 4073,
      "curly": 4074,
      "hula": 4075,
      "schöne": 4076,
      "Landschaft": 4077,
      "gesäum": 4078,
      "Flaggen": 4079,
      "aussehende": 4080,
      "shoulders": 4081,
      "Freunde": 4082,
      "Farben": 4083,
      "books": 4084,
      "fresh": 4085,
      "spray": 4086,
      "Strecke": 4087,
      "länd": 4088,
      "gegnerischen": 4089,
      "schaukelt": 4090,
      "including": 4091,
      "themselves": 4092,
      "Am": 4093,
      "Blatt": 4094,
      "Col": 4095,
      "Da": 4096,
      "Eing": 4097,
      "Gasse": 4098,
      "Hang": 4099,
      "Lkw": 4100,
      "Maske": 4101,
      "Wä": 4102,
      "Ziel": 4103,
      "cau": 4104,
      "cul": 4105,
      "crying": 4106,
      "cted": 4107,
      "dust": 4108,
      "gon": 4109,
      "kla": 4110,
      "lone": 4111,
      "mural": 4112,
      "nival": 4113,
      "oten": 4114,
      "ran": 4115,
      "tong": 4116,
      "tub": 4117,
      "wine": 4118,
      "wire": 4119,
      "inten": 4120,
      "itor": 4121,
      "lete": 4122,
      "tom": 4123,
      "oll": 4124,
      "bedient": 4125,
      "sprung": 4126,
      "opposing": 4127,
      "losen": 4128,
      "Steine": 4129,
      "Schne": 4130,
      "ads": 4131,
      "grillt": 4132,
      "reiben": 4133,
      "ssing": 4134,
      "tage": 4135,
      "taken": 4136,
      "hälter": 4137,
      "carnival": 4138,
      "schaukel": 4139,
      "stehenden": 4140,
      "langem": 4141,
      "damit": 4142,
      "Außen": 4143,
      "brün": 4144,
      "crosswalk": 4145,
      "bicyclist": 4146,
      "richtet": 4147,
      "ized": 4148,
      "Schwimmbrille": 4149,
      "wooded": 4150,
      "pulled": 4151,
      "sheet": 4152,
      "Geschäfts": 4153,
      "Flü": 4154,
      "Schnur": 4155,
      "Gegenstän": 4156,
      "Sachen": 4157,
      "makeup": 4158,
      "matching": 4159,
      "Mahl": 4160,
      "Schutzhelmen": 4161,
      "dinner": 4162,
      "Schlaf": 4163,
      "hiker": 4164,
      "Balkon": 4165,
      "Dieser": 4166,
      "bringt": 4167,
      "Sitzen": 4168,
      "farbigen": 4169,
      "produce": 4170,
      "Stroh": 4171,
      "Touristen": 4172,
      "Bullen": 4173,
      "individuals": 4174,
      "kayak": 4175,
      "beleuchteten": 4176,
      "entspannt": 4177,
      "Workers": 4178,
      "Katze": 4179,
      "heavy": 4180,
      "Kapuzenpul": 4181,
      "Trampolin": 4182,
      "trampoline": 4183,
      "Bad": 4184,
      "Licht": 4185,
      "Per": 4186,
      "Tunnel": 4187,
      "center": 4188,
      "fly": 4189,
      "för": 4190,
      "hlt": 4191,
      "kinder": 4192,
      "knee": 4193,
      "lauf": 4194,
      "mö": 4195,
      "mess": 4196,
      "ober": 4197,
      "ried": 4198,
      "sn": 4199,
      "sem": 4200,
      "tes": 4201,
      "tisch": 4202,
      "yl": 4203,
      "üben": 4204,
      "inspe": 4205,
      "eins": 4206,
      "chern": 4207,
      "stroll": 4208,
      "eig": 4209,
      "seat": 4210,
      "sewing": 4211,
      "Schä": 4212,
      "veranstaltung": 4213,
      "igkeiten": 4214,
      "entfer": 4215,
      "hosen": 4216,
      "ändern": 4217,
      "ameras": 4218,
      "Seiten": 4219,
      "Hoop": 4220,
      "hinab": 4221,
      "Skiern": 4222,
      "muck": 4223,
      "agers": 4224,
      "help": 4225,
      "picnic": 4226,
      "surface": 4227,
      "performer": 4228,
      "Berge": 4229,
      "Feldweg": 4230,
      "exc": 4231,
      "Fest": 4232,
      "covering": 4233,
      "Gesichts": 4234,
      "flug": 4235,
      "nose": 4236,
      "schneiden": 4237,
      "ondon": 4238,
      "Schüssel": 4239,
      "attempts": 4240,
      "Kreuz": 4241,
      "Wettkampf": 4242,
      "infant": 4243,
      "inflat": 4244,
      "Fahnen": 4245,
      "zeugen": 4246,
      "members": 4247,
      "verwendet": 4248,
      "Kopfhörer": 4249,
      "hüpft": 4250,
      "Turner": 4251,
      "Springbrunnen": 4252,
      "stuffed": 4253,
      "Zeichen": 4254,
      "jongliert": 4255,
      "houette": 4256,
      "12": 4257,
      "Bilder": 4258,
      "Gle": 4259,
      "Klippe": 4260,
      "Laub": 4261,
      "Rett": 4262,
      "fur": 4263,
      "jub": 4264,
      "nie": 4265,
      "own": 4266,
      "pipe": 4267,
      "sse": 4268,
      "sold": 4269,
      "zten": 4270,
      "äten": 4271,
      "inen": 4272,
      "stö": 4273,
      "leicht": 4274,
      "third": 4275,
      "alm": 4276,
      "lays": 4277,
      "bever": 4278,
      "sted": 4279,
      "steckt": 4280,
      "tele": 4281,
      "licht": 4282,
      "ierter": 4283,
      "blades": 4284,
      "oney": 4285,
      "igem": 4286,
      "skis": 4287,
      "ruht": 4288,
      "farm": 4289,
      "These": 4290,
      "dium": 4291,
      "saxoph": 4292,
      "goes": 4293,
      "dancer": 4294,
      "afel": 4295,
      "ips": 4296,
      "himself": 4297,
      "schießt": 4298,
      "geschn": 4299,
      "corn": 4300,
      "lächelnder": 4301,
      "cast": 4302,
      "driver": 4303,
      "Eishockey": 4304,
      "Poli": 4305,
      "opening": 4306,
      "blouse": 4307,
      "pushes": 4308,
      "Umzug": 4309,
      "dunkler": 4310,
      "Couch": 4311,
      "Softball": 4312,
      "chases": 4313,
      "Teams": 4314,
      "links": 4315,
      "square": 4316,
      "stadt": 4317,
      "button": 4318,
      "style": 4319,
      "Brett": 4320,
      "softball": 4321,
      "Militär": 4322,
      "zeichnet": 4323,
      "Abend": 4324,
      "rechts": 4325,
      "bauen": 4326,
      "druck": 4327,
      "bottom": 4328,
      "Sicherheits": 4329,
      "Picknick": 4330,
      "bläst": 4331,
      "Schaufenster": 4332,
      "destrians": 4333,
      "slope": 4334,
      "Anzügen": 4335,
      "balcony": 4336,
      "förm": 4337,
      "20": 4338,
      "At": 4339,
      "Bro": 4340,
      "Don": 4341,
      "For": 4342,
      "London": 4343,
      "Red": 4344,
      "Tü": 4345,
      "Teller": 4346,
      "Wander": 4347,
      "gri": 4348,
      "gitar": 4349,
      "kopf": 4350,
      "lunch": 4351,
      "tile": 4352,
      "will": 4353,
      "“-": 4354,
      "ents": 4355,
      "ane": 4356,
      "unic": 4357,
      "arena": 4358,
      "geöffnet": 4359,
      "schirmen": 4360,
      "allen": 4361,
      "device": 4362,
      "blas": 4363,
      "bekommt": 4364,
      "ersk": 4365,
      "weiter": 4366,
      "section": 4367,
      "bent": 4368,
      "verfolgt": 4369,
      "reifen": 4370,
      "sses": 4371,
      "cook": 4372,
      "trum": 4373,
      "Grim": 4374,
      "endes": 4375,
      "podium": 4376,
      "apel": 4377,
      "ringen": 4378,
      "waterfall": 4379,
      "icker": 4380,
      "ürde": 4381,
      "Box": 4382,
      "dry": 4383,
      "Geschen": 4384,
      "Asiate": 4385,
      "baren": 4386,
      "barfuß": 4387,
      "Bücher": 4388,
      "sandy": 4389,
      "richtung": 4390,
      "hellblauen": 4391,
      "stücke": 4392,
      "Veranda": 4393,
      "athlete": 4394,
      "puts": 4395,
      "pulls": 4396,
      "plant": 4397,
      "boxes": 4398,
      "staircase": 4399,
      "Sportler": 4400,
      "iano": 4401,
      "Groß": 4402,
      "Ausrüstung": 4403,
      "Blue": 4404,
      "aussehender": 4405,
      "fotografieren": 4406,
      "näher": 4407,
      "Cowboyhut": 4408,
      "speaks": 4409,
      "dunkelhäutige": 4410,
      "reparieren": 4411,
      "type": 4412,
      "Instrumenten": 4413,
      "wandert": 4414,
      "berührt": 4415,
      "gymnast": 4416,
      "schüttelt": 4417,
      "Wüste": 4418,
      "Teppich": 4419,
      "geschlossenen": 4420,
      "Kopftuch": 4421,
      "bewerb": 4422,
      "shooting": 4423,
      "Polizei": 4424,
      "Beinen": 4425,
      "Eu": 4426,
      "Hei": 4427,
      "Ham": 4428,
      "Kä": 4429,
      "Kart": 4430,
      "Nase": 4431,
      "Pod": 4432,
      "Som": 4433,
      "Trä": 4434,
      "Wurf": 4435,
      "aco": 4436,
      "har": 4437,
      "lers": 4438,
      "nei": 4439,
      "nice": 4440,
      "pupp": 4441,
      "sy": 4442,
      "sei": 4443,
      "sco": 4444,
      "suchen": 4445,
      "tight": 4446,
      "vement": 4447,
      "wasser": 4448,
      "une": 4449,
      "arrow": 4450,
      "start": 4451,
      "atting": 4452,
      "gelegt": 4453,
      "geworfen": 4454,
      "aufnahme": 4455,
      "schauf": 4456,
      "ram": 4457,
      "rack": 4458,
      "towel": 4459,
      "ship": 4460,
      "opp": 4461,
      "Steinen": 4462,
      "see": 4463,
      "verkäufer": 4464,
      "vorüber": 4465,
      "cool": 4466,
      "hoben": 4467,
      "hockt": 4468,
      "fris": 4469,
      "überfüllten": 4470,
      "fosten": 4471,
      "Personengruppe": 4472,
      "travel": 4473,
      "umpf": 4474,
      "braunhaarige": 4475,
      "boards": 4476,
      "overalls": 4477,
      "ures": 4478,
      "iertem": 4479,
      "Tele": 4480,
      "horn": 4481,
      "stool": 4482,
      "boats": 4483,
      "Essens": 4484,
      "enjoys": 4485,
      "drives": 4486,
      "blocks": 4487,
      "shaking": 4488,
      "ashion": 4489,
      "garb": 4490,
      "Projekt": 4491,
      "amerikanische": 4492,
      "swims": 4493,
      "wetsuit": 4494,
      "kehrt": 4495,
      "scape": 4496,
      "bringen": 4497,
      "Handtasche": 4498,
      "Instrumente": 4499,
      "reinigt": 4500,
      "finish": 4501,
      "grocery": 4502,
      "Reiter": 4503,
      "Guy": 4504,
      "approach": 4505,
      "Mahlzeit": 4506,
      "Bach": 4507,
      "Fischer": 4508,
      "Finger": 4509,
      "Here": 4510,
      "Rugby": 4511,
      "don": 4512,
      "gy": 4513,
      "hau": 4514,
      "hle": 4515,
      "ident": 4516,
      "mei": 4517,
      "pes": 4518,
      "sau": 4519,
      "vil": 4520,
      "zent": 4521,
      "üsi": 4522,
      "chalk": 4523,
      "stark": 4524,
      "ledge": 4525,
      "tho": 4526,
      "reit": 4527,
      "attra": 4528,
      "robes": 4529,
      "irr": 4530,
      "amüsi": 4531,
      "riert": 4532,
      "Stoff": 4533,
      "umn": 4534,
      "umher": 4535,
      "steep": 4536,
      "Schm": 4537,
      "headed": 4538,
      "grin": 4539,
      "reign": 4540,
      "läufer": 4541,
      "poster": 4542,
      "pouring": 4543,
      "apers": 4544,
      "Gep": 4545,
      "Gebiet": 4546,
      "mound": 4547,
      "Wasserfall": 4548,
      "farbene": 4549,
      "clear": 4550,
      "zentrum": 4551,
      "jean": 4552,
      "fabri": 4553,
      "pinkfarbenem": 4554,
      "muster": 4555,
      "helm": 4556,
      "puddle": 4557,
      "Asiaten": 4558,
      "compan": 4559,
      "vorbeigehen": 4560,
      "bicyclists": 4561,
      "ktor": 4562,
      "deckt": 4563,
      "ützen": 4564,
      "akes": 4565,
      "führung": 4566,
      "spee": 4567,
      "Erd": 4568,
      "marching": 4569,
      "hangs": 4570,
      "schuhe": 4571,
      "diesem": 4572,
      "kicks": 4573,
      "hüb": 4574,
      "shaving": 4575,
      "Hauses": 4576,
      "curb": 4577,
      "birds": 4578,
      "traditioneller": 4579,
      "Getränke": 4580,
      "pitcher": 4581,
      "teenagers": 4582,
      "gentlemen": 4583,
      "linken": 4584,
      "hikers": 4585,
      "Older": 4586,
      "Asiatin": 4587,
      "zeuge": 4588,
      "porch": 4589,
      "gießt": 4590,
      "Lederjacke": 4591,
      "cloudy": 4592,
      "wrapped": 4593,
      "customers": 4594,
      "Salto": 4595,
      "Fallschirm": 4596,
      "laundry": 4597,
      "einzel": 4598,
      "fingers": 4599,
      "Zähne": 4600,
      "felsigen": 4601,
      "Bä": 4602,
      "Tuch": 4603,
      "Wet": 4604,
      "bit": 4605,
      "bart": 4606,
      "drop": 4607,
      "flasche": 4608,
      "fashion": 4609,
      "nassen": 4610,
      "pair": 4611,
      "palm": 4612,
      "piano": 4613,
      "tief": 4614,
      "uert": 4615,
      "wein": 4616,
      "wett": 4617,
      "zern": 4618,
      "anger": 4619,
      "chase": 4620,
      "arch": 4621,
      "stür": 4622,
      "gef": 4623,
      "eier": 4624,
      "aufblas": 4625,
      "schlag": 4626,
      "deren": 4627,
      "opren": 4628,
      "oppo": 4629,
      "lots": 4630,
      "local": 4631,
      "weise": 4632,
      "denten": 4633,
      "groom": 4634,
      "teenager": 4635,
      "lips": 4636,
      "Gruppen": 4637,
      "airplane": 4638,
      "poles": 4639,
      "apart": 4640,
      "fröh": 4641,
      "lane": 4642,
      "untersucht": 4643,
      "foreign": 4644,
      "checking": 4645,
      "icken": 4646,
      "backyard": 4647,
      "mod": 4648,
      "Fahrräder": 4649,
      "diers": 4650,
      "Spielen": 4651,
      "saw": 4652,
      "sale": 4653,
      "struktion": 4654,
      "füß": 4655,
      "bran": 4656,
      "brillen": 4657,
      "quar": 4658,
      "stock": 4659,
      "attached": 4660,
      "Straßenkünstler": 4661,
      "hellbraunen": 4662,
      "colors": 4663,
      "Küchen": 4664,
      "sheep": 4665,
      "wäscht": 4666,
      "Lager": 4667,
      "Neopren": 4668,
      "uggage": 4669,
      "Orange": 4670,
      "reaches": 4671,
      "shoveling": 4672,
      "paddling": 4673,
      "Winterkleidung": 4674,
      "Kerl": 4675,
      "fütze": 4676,
      "prüft": 4677,
      "transport": 4678,
      "protective": 4679,
      "Blätter": 4680,
      "taucht": 4681,
      "wärts": 4682,
      "evening": 4683,
      "Eingang": 4684,
      "opposite": 4685,
      "Kissen": 4686,
      "Kuh": 4687,
      "Mc": 4688,
      "Not": 4689,
      "Pit": 4690,
      "Tarn": 4691,
      "Terr": 4692,
      "Wal": 4693,
      "Zunge": 4694,
      "eys": 4695,
      "flu": 4696,
      "flage": 4697,
      "glas": 4698,
      "jam": 4699,
      "luggage": 4700,
      "nnen": 4701,
      "swor": 4702,
      "viert": 4703,
      "vac": 4704,
      "übt": 4705,
      "anna": 4706,
      "itze": 4707,
      "eme": 4708,
      "stet": 4709,
      "stag": 4710,
      "leading": 4711,
      "mantel": 4712,
      "schwe": 4713,
      "peace": 4714,
      "allein": 4715,
      "spar": 4716,
      "oppon": 4717,
      "westen": 4718,
      "Station": 4719,
      "denim": 4720,
      "ume": 4721,
      "ica": 4722,
      "grä": 4723,
      "beieinander": 4724,
      "änden": 4725,
      "fenced": 4726,
      "ickelt": 4727,
      "desc": 4728,
      "haw": 4729,
      "sitzende": 4730,
      "pavement": 4731,
      "bathro": 4732,
      "braunes": 4733,
      "fahrern": 4734,
      "teilen": 4735,
      "cones": 4736,
      "nachdem": 4737,
      "bread": 4738,
      "pfel": 4739,
      "Fotogra": 4740,
      "Skateboardfahrer": 4741,
      "darunter": 4742,
      "Kleine": 4743,
      "polo": 4744,
      "polic": 4745,
      "windows": 4746,
      "flor": 4747,
      "dunkelhaarige": 4748,
      "kickt": 4749,
      "wheelchair": 4750,
      "skirts": 4751,
      "Werbung": 4752,
      "camou": 4753,
      "höl": 4754,
      "balancing": 4755,
      "Sieben": 4756,
      "paddelt": 4757,
      "streich": 4758,
      "erina": 4759,
      "Fußgängerüber": 4760,
      "Rollstuhl": 4761,
      "keyboard": 4762,
      "Taucher": 4763,
      "weitere": 4764,
      "Passanten": 4765,
      "begin": 4766,
      "pillow": 4767,
      "container": 4768,
      "Kurve": 4769,
      "scaffol": 4770,
      "wurde": 4771,
      "Baumstamm": 4772,
      "Wäsche": 4773,
      "tongue": 4774,
      "inflatable": 4775,
      "saxophone": 4776,
      "fabric": 4777,
      "Terrasse": 4778,
      "camouflage": 4779,
      "Bord": 4780,
      "City": 4781,
      "Du": 4782,
      "Fil": 4783,
      "Kö": 4784,
      "Kam": 4785,
      "Kab": 4786,
      "Key": 4787,
      "Mod": 4788,
      "Pat": 4789,
      "Wein": 4790,
      "action": 4791,
      "baut": 4792,
      "care": 4793,
      "dü": 4794,
      "eats": 4795,
      "free": 4796,
      "fans": 4797,
      "fill": 4798,
      "flight": 4799,
      "lle": 4800,
      "lim": 4801,
      "rem": 4802,
      "uss": 4803,
      "vent": 4804,
      "äut": 4805,
      "üte": 4806,
      "chn": 4807,
      "char": 4808,
      "legest": 4809,
      "refer": 4810,
      "ello": 4811,
      "iss": 4812,
      "atet": 4813,
      "aters": 4814,
      "escal": 4815,
      "scheinen": 4816,
      "ilden": 4817,
      "bling": 4818,
      "image": 4819,
      "spin": 4820,
      "ames": 4821,
      "shade": 4822,
      "riage": 4823,
      "richten": 4824,
      "bern": 4825,
      "ligen": 4826,
      "vorn": 4827,
      "igam": 4828,
      "buying": 4829,
      "Gew": 4830,
      "unterschie": 4831,
      "tractor": 4832,
      "chest": 4833,
      "Lehr": 4834,
      "hafen": 4835,
      "model": 4836,
      "perim": 4837,
      "Sees": 4838,
      "hinaus": 4839,
      "helfen": 4840,
      "meet": 4841,
      "hinterher": 4842,
      "Bräut": 4843,
      "walls": 4844,
      "affe": 4845,
      "barfüß": 4846,
      "ütte": 4847,
      "attle": 4848,
      "stufen": 4849,
      "izza": 4850,
      "ammlung": 4851,
      "floating": 4852,
      "Schwimmer": 4853,
      "Becher": 4854,
      "married": 4855,
      "discu": 4856,
      "Mitglie": 4857,
      "motorcycles": 4858,
      "laughs": 4859,
      "kiss": 4860,
      "testelle": 4861,
      "swimsuit": 4862,
      "schwen": 4863,
      "courtyard": 4864,
      "railroad": 4865,
      "konzent": 4866,
      "vollführt": 4867,
      "Hockeyspieler": 4868,
      "goalie": 4869,
      "raised": 4870,
      "rothaarige": 4871,
      "angelt": 4872,
      "Nah": 4873,
      "frame": 4874,
      "rasiert": 4875,
      "bewegt": 4876,
      "mobile": 4877,
      "professional": 4878,
      "Brust": 4879,
      "juggling": 4880,
      "recei": 4881,
      "skinned": 4882,
      "becue": 4883,
      "Santa": 4884,
      "Rettung": 4885,
      "geschnitten": 4886,
      "Teleskop": 4887,
      "Gepäck": 4888,
      "jamas": 4889,
      "gräbt": 4890,
      "floral": 4891,
      "unterschied": 4892,
      "Bräutigam": 4893,
      "Auft": 4894,
      "Lad": 4895,
      "Mon": 4896,
      "Namen": 4897,
      "Pal": 4898,
      "Tätow": 4899,
      "aden": 4900,
      "bi": 4901,
      "eu": 4902,
      "eith": 4903,
      "egg": 4904,
      "gas": 4905,
      "hre": 4906,
      "hner": 4907,
      "kunst": 4908,
      "map": 4909,
      "nch": 4910,
      "pers": 4911,
      "super": 4912,
      "tar": 4913,
      "tür": 4914,
      "ws": 4915,
      "xas": 4916,
      "Über": 4917,
      "erkl": 4918,
      "itter": 4919,
      "isher": 4920,
      "unde": 4921,
      "gezeigt": 4922,
      "orche": 4923,
      "asst": 4924,
      "schle": 4925,
      "schreit": 4926,
      "rac": 4927,
      "six": 4928,
      "weight": 4929,
      "oly": 4930,
      "dekor": 4931,
      "uten": 4932,
      "ammen": 4933,
      "shal": 4934,
      "riders": 4935,
      "Mänt": 4936,
      "seit": 4937,
      "bene": 4938,
      "verlassen": 4939,
      "adjust": 4940,
      "grö": 4941,
      "reide": 4942,
      "eds": 4943,
      "tail": 4944,
      "rena": 4945,
      "bucking": 4946,
      "Gewehr": 4947,
      "Spaz": 4948,
      "carpet": 4949,
      "carriage": 4950,
      "cheerlea": 4951,
      "backwards": 4952,
      "moves": 4953,
      "american": 4954,
      "sitzender": 4955,
      "sitzenden": 4956,
      "pajamas": 4957,
      "bage": 4958,
      "graben": 4959,
      "abzu": 4960,
      "socks": 4961,
      "shown": 4962,
      "Fotograf": 4963,
      "aurants": 4964,
      "bandanna": 4965,
      "iple": 4966,
      "ippen": 4967,
      "ippt": 4968,
      "akers": 4969,
      "schießen": 4970,
      "student": 4971,
      "laschen": 4972,
      "Studenten": 4973,
      "Arbeitskleidung": 4974,
      "stühlen": 4975,
      "ustic": 4976,
      "schnitt": 4977,
      "falls": 4978,
      "bunte": 4979,
      "musician": 4980,
      "Geschirr": 4981,
      "Waldgebiet": 4982,
      "Rollt": 4983,
      "marketplace": 4984,
      "appear": 4985,
      "mmert": 4986,
      "firefigh": 4987,
      "garbage": 4988,
      "Karten": 4989,
      "Karren": 4990,
      "Produ": 4991,
      "Gerät": 4992,
      "goldenen": 4993,
      "Plakat": 4994,
      "benutzen": 4995,
      "ausgestre": 4996,
      "jerseys": 4997,
      "happily": 4998,
      "entertain": 4999
    },
    "merges": [
      [
        "i",
        "n"
      ],
      [
        "e",
        "n"
      ],
      [
        "e",
        "r"
      ],
      [
        "a",
        "n"
      ],
      [
        "e",
        "in"
      ],
      [
        "c",
        "h"
      ],
      [
        "i",
        "t"
      ],
      [
        "in",
        "g"
      ],
      [
        "u",
        "n"
      ],
      [
        "a",
        "r"
      ],
      [
        "a",
        "u"
      ],
      [
        "o",
        "n"
      ],
      [
        "e",
        "m"
      ],
      [
        "s",
        "t"
      ],
      [
        "E",
        "in"
      ],
      [
        "l",
        "e"
      ],
      [
        "t",
        "h"
      ],
      [
        "r",
        "e"
      ],
      [
        "an",
        "d"
      ],
      [
        "e",
        "l"
      ],
      [
        "a",
        "l"
      ],
      [
        "i",
        "s"
      ],
      [
        "ein",
        "em"
      ],
      [
        "un",
        "d"
      ],
      [
        "a",
        "t"
      ],
      [
        "r",
        "o"
      ],
      [
        "g",
        "e"
      ],
      [
        "o",
        "r"
      ],
      [
        "e",
        "i"
      ],
      [
        "m",
        "an"
      ],
      [
        "c",
        "k"
      ],
      [
        "e",
        "s"
      ],
      [
        "a",
        "s"
      ],
      [
        "au",
        "f"
      ],
      [
        "th",
        "e"
      ],
      [
        "e",
        "t"
      ],
      [
        "m",
        "it"
      ],
      [
        "w",
        "o"
      ],
      [
        "i",
        "r"
      ],
      [
        "s",
        "ch"
      ],
      [
        "M",
        "an"
      ],
      [
        "l",
        "a"
      ],
      [
        "d",
        "er"
      ],
      [
        "r",
        "a"
      ],
      [
        "i",
        "e"
      ],
      [
        "o",
        "f"
      ],
      [
        "Man",
        "n"
      ],
      [
        "ein",
        "er"
      ],
      [
        "t",
        "o"
      ],
      [
        "h",
        "r"
      ],
      [
        "s",
        "i"
      ],
      [
        "it",
        "h"
      ],
      [
        "w",
        "ith"
      ],
      [
        "w",
        "ei"
      ],
      [
        "r",
        "au"
      ],
      [
        "i",
        "l"
      ],
      [
        "o",
        "l"
      ],
      [
        "un",
        "g"
      ],
      [
        "Ein",
        "e"
      ],
      [
        "p",
        "e"
      ],
      [
        "al",
        "l"
      ],
      [
        "d",
        "e"
      ],
      [
        "t",
        "er"
      ],
      [
        "b",
        "l"
      ],
      [
        "b",
        "e"
      ],
      [
        "i",
        "m"
      ],
      [
        "er",
        "s"
      ],
      [
        "b",
        "o"
      ],
      [
        "s",
        "p"
      ],
      [
        "u",
        "t"
      ],
      [
        "a",
        "m"
      ],
      [
        "s",
        "it"
      ],
      [
        "s",
        "h"
      ],
      [
        "F",
        "rau"
      ],
      [
        "t",
        "en"
      ],
      [
        "o",
        "p"
      ],
      [
        "m",
        "en"
      ],
      [
        "d",
        "o"
      ],
      [
        "w",
        "h"
      ],
      [
        "ein",
        "e"
      ],
      [
        "u",
        "p"
      ],
      [
        "l",
        "o"
      ],
      [
        "u",
        "r"
      ],
      [
        "n",
        "e"
      ],
      [
        "r",
        "i"
      ],
      [
        "i",
        "el"
      ],
      [
        "w",
        "e"
      ],
      [
        "ch",
        "en"
      ],
      [
        "h",
        "t"
      ],
      [
        "ar",
        "e"
      ],
      [
        "S",
        "t"
      ],
      [
        "d",
        "en"
      ],
      [
        "ein",
        "en"
      ],
      [
        "k",
        "ing"
      ],
      [
        "u",
        "m"
      ],
      [
        "M",
        "ä"
      ],
      [
        "s",
        "e"
      ],
      [
        "g",
        "en"
      ],
      [
        "b",
        "en"
      ],
      [
        "wo",
        "man"
      ],
      [
        "ir",
        "t"
      ],
      [
        "d",
        "ie"
      ],
      [
        "a",
        "ch"
      ],
      [
        "st",
        "e"
      ],
      [
        "p",
        "la"
      ],
      [
        "g",
        "ro"
      ],
      [
        "d",
        "ing"
      ],
      [
        "b",
        "er"
      ],
      [
        "S",
        "ch"
      ],
      [
        "z",
        "u"
      ],
      [
        "v",
        "er"
      ],
      [
        "Z",
        "wei"
      ],
      [
        "as",
        "s"
      ],
      [
        "op",
        "le"
      ],
      [
        "T",
        "wo"
      ],
      [
        "pla",
        "y"
      ],
      [
        "a",
        "ck"
      ],
      [
        "h",
        "e"
      ],
      [
        "b",
        "all"
      ],
      [
        "sp",
        "iel"
      ],
      [
        "i",
        "c"
      ],
      [
        "o",
        "m"
      ],
      [
        "f",
        "t"
      ],
      [
        "i",
        "d"
      ],
      [
        "ar",
        "ing"
      ],
      [
        "a",
        "d"
      ],
      [
        "st",
        "and"
      ],
      [
        "t",
        "e"
      ],
      [
        "sh",
        "irt"
      ],
      [
        "t",
        "ing"
      ],
      [
        "w",
        "al"
      ],
      [
        "ers",
        "on"
      ],
      [
        "l",
        "i"
      ],
      [
        "h",
        "en"
      ],
      [
        "w",
        "ar"
      ],
      [
        "v",
        "or"
      ],
      [
        "sit",
        "z"
      ],
      [
        "we",
        "aring"
      ],
      [
        "in",
        "d"
      ],
      [
        "w",
        "n"
      ],
      [
        "g",
        "r"
      ],
      [
        "pe",
        "ople"
      ],
      [
        "it",
        "e"
      ],
      [
        "k",
        "l"
      ],
      [
        "re",
        "i"
      ],
      [
        "ß",
        "en"
      ],
      [
        "v",
        "on"
      ],
      [
        "o",
        "t"
      ],
      [
        "n",
        "er"
      ],
      [
        "h",
        "er"
      ],
      [
        "un",
        "ge"
      ],
      [
        "si",
        "ch"
      ],
      [
        "o",
        "ung"
      ],
      [
        "g",
        "t"
      ],
      [
        "re",
        "d"
      ],
      [
        "i",
        "er"
      ],
      [
        "i",
        "le"
      ],
      [
        "d",
        "em"
      ],
      [
        "ä",
        "hr"
      ],
      [
        "u",
        "e"
      ],
      [
        "b",
        "ei"
      ],
      [
        "l",
        "t"
      ],
      [
        "il",
        "d"
      ],
      [
        "wh",
        "ite"
      ],
      [
        "ir",
        "l"
      ],
      [
        "s",
        "s"
      ],
      [
        "f",
        "or"
      ],
      [
        "bo",
        "y"
      ],
      [
        "d",
        "chen"
      ],
      [
        "Mä",
        "dchen"
      ],
      [
        "y",
        "oung"
      ],
      [
        "h",
        "is"
      ],
      [
        "g",
        "irl"
      ],
      [
        "o",
        "ut"
      ],
      [
        "do",
        "g"
      ],
      [
        "th",
        "er"
      ],
      [
        "n",
        "en"
      ],
      [
        "b",
        "la"
      ],
      [
        "e",
        "d"
      ],
      [
        "H",
        "und"
      ],
      [
        "c",
        "o"
      ],
      [
        "P",
        "erson"
      ],
      [
        "t",
        "r"
      ],
      [
        "bla",
        "ck"
      ],
      [
        "w",
        "at"
      ],
      [
        "t",
        "a"
      ],
      [
        "ch",
        "t"
      ],
      [
        "ß",
        "e"
      ],
      [
        "war",
        "z"
      ],
      [
        "si",
        "de"
      ],
      [
        "u",
        "g"
      ],
      [
        "wh",
        "ile"
      ],
      [
        "on",
        "e"
      ],
      [
        "G",
        "r"
      ],
      [
        "i",
        "g"
      ],
      [
        "bl",
        "ue"
      ],
      [
        "c",
        "e"
      ],
      [
        "ein",
        "es"
      ],
      [
        "n",
        "ner"
      ],
      [
        "sch",
        "warz"
      ],
      [
        "t",
        "s"
      ],
      [
        "en",
        "d"
      ],
      [
        "b",
        "y"
      ],
      [
        "Mä",
        "nner"
      ],
      [
        "h",
        "ä"
      ],
      [
        "bl",
        "au"
      ],
      [
        "ste",
        "ht"
      ],
      [
        "a",
        "hr"
      ],
      [
        "en",
        "t"
      ],
      [
        "st",
        "re"
      ],
      [
        "h",
        "o"
      ],
      [
        "St",
        "ra"
      ],
      [
        "sit",
        "ting"
      ],
      [
        "ar",
        "k"
      ],
      [
        "h",
        "ol"
      ],
      [
        "le",
        "id"
      ],
      [
        "l",
        "ä"
      ],
      [
        "i",
        "k"
      ],
      [
        "a",
        "ir"
      ],
      [
        "lo",
        "o"
      ],
      [
        "r",
        "en"
      ],
      [
        "M",
        "en"
      ],
      [
        "p",
        "o"
      ],
      [
        "sitz",
        "t"
      ],
      [
        "au",
        "s"
      ],
      [
        "a",
        "p"
      ],
      [
        "stand",
        "ing"
      ],
      [
        "i",
        "st"
      ],
      [
        "and",
        "er"
      ],
      [
        "f",
        "r"
      ],
      [
        "play",
        "ing"
      ],
      [
        "is",
        "ch"
      ],
      [
        "ü",
        "ber"
      ],
      [
        "J",
        "unge"
      ],
      [
        "ch",
        "ild"
      ],
      [
        "b",
        "u"
      ],
      [
        "g",
        "el"
      ],
      [
        "o",
        "w"
      ],
      [
        "gro",
        "up"
      ],
      [
        "stre",
        "et"
      ],
      [
        "w",
        "a"
      ],
      [
        "up",
        "pe"
      ],
      [
        "sch",
        "en"
      ],
      [
        "G",
        "e"
      ],
      [
        "ar",
        "d"
      ],
      [
        "do",
        "wn"
      ],
      [
        "on",
        "t"
      ],
      [
        "hä",
        "lt"
      ],
      [
        "l",
        "an"
      ],
      [
        "u",
        "l"
      ],
      [
        "Stra",
        "ße"
      ],
      [
        "ähr",
        "end"
      ],
      [
        "re",
        "e"
      ],
      [
        "S",
        "p"
      ],
      [
        "w",
        "ährend"
      ],
      [
        "h",
        "at"
      ],
      [
        "v",
        "e"
      ],
      [
        "wal",
        "king"
      ],
      [
        "un",
        "ter"
      ],
      [
        "f",
        "o"
      ],
      [
        "A",
        "n"
      ],
      [
        "i",
        "on"
      ],
      [
        "s",
        "m"
      ],
      [
        "Men",
        "schen"
      ],
      [
        "Gr",
        "uppe"
      ],
      [
        "wal",
        "k"
      ],
      [
        "spiel",
        "t"
      ],
      [
        "fr",
        "ont"
      ],
      [
        "H",
        "em"
      ],
      [
        "in",
        "ter"
      ],
      [
        "o",
        "ther"
      ],
      [
        "om",
        "e"
      ],
      [
        "an",
        "ge"
      ],
      [
        "c",
        "ro"
      ],
      [
        "g",
        "er"
      ],
      [
        "z",
        "e"
      ],
      [
        "s",
        "k"
      ],
      [
        "hol",
        "ding"
      ],
      [
        "c",
        "ar"
      ],
      [
        "s",
        "en"
      ],
      [
        "d",
        "re"
      ],
      [
        "Hem",
        "d"
      ],
      [
        "in",
        "k"
      ],
      [
        "r",
        "ing"
      ],
      [
        "ä",
        "n"
      ],
      [
        "el",
        "l"
      ],
      [
        "Person",
        "en"
      ],
      [
        "f",
        "en"
      ],
      [
        "wat",
        "er"
      ],
      [
        "d",
        "ur"
      ],
      [
        "it",
        "t"
      ],
      [
        "r",
        "un"
      ],
      [
        "sch",
        "au"
      ],
      [
        "t",
        "ra"
      ],
      [
        "f",
        "er"
      ],
      [
        "in",
        "der"
      ],
      [
        "ch",
        "e"
      ],
      [
        "lo",
        "w"
      ],
      [
        "d",
        "as"
      ],
      [
        "k",
        "e"
      ],
      [
        "at",
        "e"
      ],
      [
        "i",
        "ck"
      ],
      [
        "u",
        "ft"
      ],
      [
        "L",
        "e"
      ],
      [
        "T",
        "he"
      ],
      [
        "w",
        "or"
      ],
      [
        "ü",
        "r"
      ],
      [
        "blau",
        "en"
      ],
      [
        "for",
        "m"
      ],
      [
        "r",
        "u"
      ],
      [
        "um",
        "p"
      ],
      [
        "c",
        "t"
      ],
      [
        "y",
        "ing"
      ],
      [
        "s",
        "ing"
      ],
      [
        "ste",
        "hen"
      ],
      [
        "ass",
        "er"
      ],
      [
        "wei",
        "ßen"
      ],
      [
        "d",
        "es"
      ],
      [
        "th",
        "ro"
      ],
      [
        "m",
        "a"
      ],
      [
        "ei",
        "l"
      ],
      [
        "ne",
        "ben"
      ],
      [
        "b",
        "ack"
      ],
      [
        "ach",
        "t"
      ],
      [
        "b",
        "ra"
      ],
      [
        "s",
        "ome"
      ],
      [
        "K",
        "inder"
      ],
      [
        "h",
        "a"
      ],
      [
        "m",
        "o"
      ],
      [
        "am",
        "er"
      ],
      [
        "g",
        "re"
      ],
      [
        "Frau",
        "en"
      ],
      [
        "W",
        "asser"
      ],
      [
        "f",
        "ar"
      ],
      [
        "be",
        "it"
      ],
      [
        "ro",
        "ten"
      ],
      [
        "f",
        "e"
      ],
      [
        "dur",
        "ch"
      ],
      [
        "im",
        "m"
      ],
      [
        "sitz",
        "en"
      ],
      [
        "ra",
        "d"
      ],
      [
        "p",
        "a"
      ],
      [
        "K",
        "ind"
      ],
      [
        "b",
        "a"
      ],
      [
        "ä",
        "u"
      ],
      [
        "i",
        "hr"
      ],
      [
        "or",
        "ange"
      ],
      [
        "u",
        "it"
      ],
      [
        "loo",
        "king"
      ],
      [
        "gre",
        "en"
      ],
      [
        "F",
        "o"
      ],
      [
        "j",
        "ump"
      ],
      [
        "bra",
        "un"
      ],
      [
        "sp",
        "ring"
      ],
      [
        "spiel",
        "en"
      ],
      [
        "b",
        "le"
      ],
      [
        "wo",
        "men"
      ],
      [
        "n",
        "ow"
      ],
      [
        "wei",
        "ß"
      ],
      [
        "itt",
        "le"
      ],
      [
        "ge",
        "ht"
      ],
      [
        "l",
        "ar"
      ],
      [
        "h",
        "n"
      ],
      [
        "gr",
        "ü"
      ],
      [
        "T",
        "h"
      ],
      [
        "bo",
        "ard"
      ],
      [
        "l",
        "er"
      ],
      [
        "f",
        "ro"
      ],
      [
        "b",
        "ro"
      ],
      [
        "an",
        "s"
      ],
      [
        "D",
        "rei"
      ],
      [
        "tr",
        "ä"
      ],
      [
        "f",
        "ähr"
      ],
      [
        "fähr",
        "t"
      ],
      [
        "H",
        "and"
      ],
      [
        "f",
        "ahr"
      ],
      [
        "out",
        "side"
      ],
      [
        "ug",
        "h"
      ],
      [
        "l",
        "ie"
      ],
      [
        "on",
        "g"
      ],
      [
        "ar",
        "t"
      ],
      [
        "k",
        "leid"
      ],
      [
        "F",
        "ahr"
      ],
      [
        "l",
        "ass"
      ],
      [
        "Th",
        "ree"
      ],
      [
        "o",
        "d"
      ],
      [
        "far",
        "ben"
      ],
      [
        "trä",
        "gt"
      ],
      [
        "g",
        "ra"
      ],
      [
        "gro",
        "und"
      ],
      [
        "l",
        "ittle"
      ],
      [
        "lan",
        "g"
      ],
      [
        "d",
        "i"
      ],
      [
        "lar",
        "ge"
      ],
      [
        "k",
        "s"
      ],
      [
        "f",
        "f"
      ],
      [
        "d",
        "a"
      ],
      [
        "thro",
        "ugh"
      ],
      [
        "A",
        "u"
      ],
      [
        "amer",
        "a"
      ],
      [
        "p",
        "er"
      ],
      [
        "B",
        "o"
      ],
      [
        "el",
        "t"
      ],
      [
        "el",
        "low"
      ],
      [
        "K",
        "leid"
      ],
      [
        "Le",
        "ut"
      ],
      [
        "s",
        "now"
      ],
      [
        "bro",
        "wn"
      ],
      [
        "c",
        "le"
      ],
      [
        "y",
        "ellow"
      ],
      [
        "O",
        "ber"
      ],
      [
        "Sp",
        "iel"
      ],
      [
        "t",
        "eil"
      ],
      [
        "er",
        "e"
      ],
      [
        "t",
        "wo"
      ],
      [
        "i",
        "h"
      ],
      [
        "p",
        "h"
      ],
      [
        "o",
        "ver"
      ],
      [
        "z",
        "en"
      ],
      [
        "se",
        "d"
      ],
      [
        "kl",
        "eines"
      ],
      [
        "ck",
        "e"
      ],
      [
        "h",
        "and"
      ],
      [
        "ei",
        "r"
      ],
      [
        "c",
        "on"
      ],
      [
        "m",
        "acht"
      ],
      [
        "spring",
        "t"
      ],
      [
        "l",
        "ter"
      ],
      [
        "w",
        "as"
      ],
      [
        "M",
        "e"
      ],
      [
        "j",
        "ack"
      ],
      [
        "a",
        "ge"
      ],
      [
        "b",
        "ik"
      ],
      [
        "u",
        "re"
      ],
      [
        "ent",
        "lang"
      ],
      [
        "schwarz",
        "en"
      ],
      [
        "er",
        "t"
      ],
      [
        "bl",
        "on"
      ],
      [
        "fro",
        "m"
      ],
      [
        "th",
        "eir"
      ],
      [
        "el",
        "n"
      ],
      [
        "j",
        "unge"
      ],
      [
        "in",
        "to"
      ],
      [
        "d",
        "s"
      ],
      [
        "ar",
        "beit"
      ],
      [
        "in",
        "e"
      ],
      [
        "S",
        "h"
      ],
      [
        "as",
        "e"
      ],
      [
        "S",
        "e"
      ],
      [
        "z",
        "wei"
      ],
      [
        "l",
        "y"
      ],
      [
        "p",
        "erson"
      ],
      [
        "x",
        "t"
      ],
      [
        "kl",
        "einer"
      ],
      [
        "s",
        "a"
      ],
      [
        "v",
        "ers"
      ],
      [
        "h",
        "al"
      ],
      [
        "ge",
        "hen"
      ],
      [
        "n",
        "ing"
      ],
      [
        "ung",
        "en"
      ],
      [
        "wat",
        "ch"
      ],
      [
        "bu",
        "il"
      ],
      [
        "th",
        "ing"
      ],
      [
        "H",
        "o"
      ],
      [
        "s",
        "ie"
      ],
      [
        "l",
        "u"
      ],
      [
        "an",
        "k"
      ],
      [
        "buil",
        "ding"
      ],
      [
        "am",
        "e"
      ],
      [
        "child",
        "ren"
      ],
      [
        "B",
        "a"
      ],
      [
        "ne",
        "xt"
      ],
      [
        "a",
        "ar"
      ],
      [
        "s",
        "sed"
      ],
      [
        "Leut",
        "e"
      ],
      [
        "st",
        "ru"
      ],
      [
        "sm",
        "all"
      ],
      [
        "A",
        "r"
      ],
      [
        "ne",
        "ar"
      ],
      [
        "j",
        "e"
      ],
      [
        "to",
        "p"
      ],
      [
        "dre",
        "ssed"
      ],
      [
        "g",
        "ht"
      ],
      [
        "F",
        "el"
      ],
      [
        "f",
        "a"
      ],
      [
        "h",
        "in"
      ],
      [
        "cro",
        "w"
      ],
      [
        "u",
        "ß"
      ],
      [
        "s",
        "w"
      ],
      [
        "il",
        "le"
      ],
      [
        "c",
        "lo"
      ],
      [
        "b",
        "äu"
      ],
      [
        "is",
        "chen"
      ],
      [
        "S",
        "k"
      ],
      [
        "jack",
        "et"
      ],
      [
        "i",
        "gen"
      ],
      [
        "of",
        "f"
      ],
      [
        "ta",
        "ble"
      ],
      [
        "kleid",
        "et"
      ],
      [
        "st",
        "er"
      ],
      [
        "v",
        "ing"
      ],
      [
        "gr",
        "ass"
      ],
      [
        "P",
        "e"
      ],
      [
        "w",
        "ir"
      ],
      [
        "Fahr",
        "rad"
      ],
      [
        "p",
        "ink"
      ],
      [
        "ot",
        "or"
      ],
      [
        "r",
        "and"
      ],
      [
        "il",
        "l"
      ],
      [
        "Ober",
        "teil"
      ],
      [
        "an",
        "t"
      ],
      [
        "ar",
        "o"
      ],
      [
        "d",
        "y"
      ],
      [
        "i",
        "ge"
      ],
      [
        "ck",
        "en"
      ],
      [
        "m",
        "u"
      ],
      [
        "ier",
        "t"
      ],
      [
        "F",
        "uß"
      ],
      [
        "l",
        "at"
      ],
      [
        "a",
        "b"
      ],
      [
        "et",
        "was"
      ],
      [
        "a",
        "g"
      ],
      [
        "as",
        "k"
      ],
      [
        "ä",
        "lter"
      ],
      [
        "ri",
        "ding"
      ],
      [
        "le",
        "t"
      ],
      [
        "hr",
        "ere"
      ],
      [
        "run",
        "ning"
      ],
      [
        "p",
        "ark"
      ],
      [
        "s",
        "einem"
      ],
      [
        "u",
        "ch"
      ],
      [
        "Pe",
        "ople"
      ],
      [
        "gro",
        "ßen"
      ],
      [
        "d",
        "r"
      ],
      [
        "B",
        "all"
      ],
      [
        "h",
        "el"
      ],
      [
        "ne",
        "e"
      ],
      [
        "b",
        "ri"
      ],
      [
        "m",
        "e"
      ],
      [
        "or",
        "ts"
      ],
      [
        "an",
        "other"
      ],
      [
        "aro",
        "und"
      ],
      [
        "grü",
        "nen"
      ],
      [
        "f",
        "iel"
      ],
      [
        "s",
        "o"
      ],
      [
        "re",
        "p"
      ],
      [
        "we",
        "g"
      ],
      [
        "f",
        "ü"
      ],
      [
        "y",
        "cle"
      ],
      [
        "n",
        "ach"
      ],
      [
        "e",
        "it"
      ],
      [
        "or",
        "t"
      ],
      [
        "Ge",
        "bäu"
      ],
      [
        "J",
        "ack"
      ],
      [
        "b",
        "r"
      ],
      [
        "c",
        "ol"
      ],
      [
        "schau",
        "t"
      ],
      [
        "h",
        "l"
      ],
      [
        "gr",
        "und"
      ],
      [
        "it",
        "y"
      ],
      [
        "i",
        "cht"
      ],
      [
        "fiel",
        "d"
      ],
      [
        "ge",
        "kleidet"
      ],
      [
        "side",
        "walk"
      ],
      [
        "u",
        "s"
      ],
      [
        "H",
        "inter"
      ],
      [
        "er",
        "n"
      ],
      [
        "ck",
        "s"
      ],
      [
        "wor",
        "k"
      ],
      [
        "q",
        "u"
      ],
      [
        "b",
        "t"
      ],
      [
        "lass",
        "es"
      ],
      [
        "wa",
        "y"
      ],
      [
        "G",
        "es"
      ],
      [
        "B",
        "au"
      ],
      [
        "be",
        "ach"
      ],
      [
        "p",
        "u"
      ],
      [
        "o",
        "b"
      ],
      [
        "L",
        "uft"
      ],
      [
        "t",
        "al"
      ],
      [
        "n",
        "t"
      ],
      [
        "ta",
        "in"
      ],
      [
        "h",
        "ind"
      ],
      [
        "an",
        "g"
      ],
      [
        "cro",
        "ss"
      ],
      [
        "op",
        "f"
      ],
      [
        "lä",
        "uft"
      ],
      [
        "Sh",
        "irt"
      ],
      [
        "ol",
        "d"
      ],
      [
        "crow",
        "d"
      ],
      [
        "n",
        "is"
      ],
      [
        "p",
        "ic"
      ],
      [
        "D",
        "er"
      ],
      [
        "h",
        "air"
      ],
      [
        "auf",
        "en"
      ],
      [
        "z",
        "t"
      ],
      [
        "Me",
        "hrere"
      ],
      [
        "F",
        "rei"
      ],
      [
        "St",
        "rand"
      ],
      [
        "stand",
        "s"
      ],
      [
        "farben",
        "en"
      ],
      [
        "c",
        "er"
      ],
      [
        "g",
        "u"
      ],
      [
        "sit",
        "s"
      ],
      [
        "jump",
        "ing"
      ],
      [
        "s",
        "ind"
      ],
      [
        "dre",
        "ss"
      ],
      [
        "s",
        "ur"
      ],
      [
        "be",
        "hind"
      ],
      [
        "bik",
        "e"
      ],
      [
        "m",
        "er"
      ],
      [
        "f",
        "ür"
      ],
      [
        "lä",
        "ch"
      ],
      [
        "l",
        "ing"
      ],
      [
        "A",
        "si"
      ],
      [
        "sh",
        "o"
      ],
      [
        "se",
        "hen"
      ],
      [
        "Hinter",
        "grund"
      ],
      [
        "h",
        "inter"
      ],
      [
        "ph",
        "one"
      ],
      [
        "J",
        "ungen"
      ],
      [
        "do",
        "or"
      ],
      [
        "ase",
        "ball"
      ],
      [
        "ro",
        "t"
      ],
      [
        "hal",
        "ten"
      ],
      [
        "f",
        "ul"
      ],
      [
        "he",
        "ad"
      ],
      [
        "R",
        "e"
      ],
      [
        "c",
        "om"
      ],
      [
        "j",
        "ung"
      ],
      [
        "t",
        "ure"
      ],
      [
        "g",
        "o"
      ],
      [
        "p",
        "ing"
      ],
      [
        "spiel",
        "er"
      ],
      [
        "ask",
        "et"
      ],
      [
        "Jack",
        "e"
      ],
      [
        "Kleid",
        "ung"
      ],
      [
        "re",
        "st"
      ],
      [
        "le",
        "s"
      ],
      [
        "al",
        "s"
      ],
      [
        "Frei",
        "en"
      ],
      [
        "it",
        "ar"
      ],
      [
        "ander",
        "en"
      ],
      [
        "ate",
        "board"
      ],
      [
        "back",
        "ground"
      ],
      [
        "B",
        "r"
      ],
      [
        "il",
        "ing"
      ],
      [
        "ze",
        "ug"
      ],
      [
        "d",
        "an"
      ],
      [
        "s",
        "c"
      ],
      [
        "at",
        "ing"
      ],
      [
        "K",
        "opf"
      ],
      [
        "i",
        "es"
      ],
      [
        "gel",
        "ben"
      ],
      [
        "s",
        "am"
      ],
      [
        "ge",
        "st"
      ],
      [
        "as",
        "i"
      ],
      [
        "c",
        "ing"
      ],
      [
        "m",
        "et"
      ],
      [
        "jung",
        "er"
      ],
      [
        "at",
        "ion"
      ],
      [
        "w",
        "er"
      ],
      [
        "w",
        "all"
      ],
      [
        "ho",
        "ch"
      ],
      [
        "vor",
        "bei"
      ],
      [
        "b",
        "re"
      ],
      [
        "pe",
        "d"
      ],
      [
        "c",
        "ity"
      ],
      [
        "p",
        "f"
      ],
      [
        "I",
        "n"
      ],
      [
        "a",
        "f"
      ],
      [
        "p",
        "ro"
      ],
      [
        "ö",
        "r"
      ],
      [
        "T",
        "isch"
      ],
      [
        "i",
        "form"
      ],
      [
        "ic",
        "e"
      ],
      [
        "er",
        "en"
      ],
      [
        "ch",
        "er"
      ],
      [
        "un",
        "tain"
      ],
      [
        "play",
        "er"
      ],
      [
        "girl",
        "s"
      ],
      [
        "b",
        "ic"
      ],
      [
        "u",
        "cht"
      ],
      [
        "it",
        "s"
      ],
      [
        "per",
        "form"
      ],
      [
        "pic",
        "ture"
      ],
      [
        "p",
        "an"
      ],
      [
        "s",
        "uit"
      ],
      [
        "v",
        "es"
      ],
      [
        "loo",
        "ks"
      ],
      [
        "v",
        "ol"
      ],
      [
        "ü",
        "ck"
      ],
      [
        "ü",
        "n"
      ],
      [
        "ot",
        "ball"
      ],
      [
        "b",
        "ar"
      ],
      [
        "men",
        "ge"
      ],
      [
        "Sch",
        "nee"
      ],
      [
        "uit",
        "ar"
      ],
      [
        "zu",
        "g"
      ],
      [
        "dog",
        "s"
      ],
      [
        "S",
        "on"
      ],
      [
        "st",
        "ei"
      ],
      [
        "ander",
        "e"
      ],
      [
        "N",
        "ä"
      ],
      [
        "t",
        "an"
      ],
      [
        "H",
        "ut"
      ],
      [
        "Gebäu",
        "de"
      ],
      [
        "g",
        "uitar"
      ],
      [
        "ver",
        "al"
      ],
      [
        "Fo",
        "to"
      ],
      [
        "B",
        "ü"
      ],
      [
        "th",
        "at"
      ],
      [
        "z",
        "ei"
      ],
      [
        "c",
        "amera"
      ],
      [
        "Fuß",
        "ball"
      ],
      [
        "schwarz",
        "er"
      ],
      [
        "h",
        "ne"
      ],
      [
        "au",
        "r"
      ],
      [
        "la",
        "g"
      ],
      [
        "ro",
        "ck"
      ],
      [
        "asket",
        "ball"
      ],
      [
        "b",
        "et"
      ],
      [
        "T",
        "e"
      ],
      [
        "k",
        "t"
      ],
      [
        "bu",
        "s"
      ],
      [
        "a",
        "de"
      ],
      [
        "l",
        "l"
      ],
      [
        "wir",
        "d"
      ],
      [
        "Gr",
        "as"
      ],
      [
        "j",
        "o"
      ],
      [
        "bl",
        "ick"
      ],
      [
        "K",
        "amera"
      ],
      [
        "s",
        "et"
      ],
      [
        "ol",
        "der"
      ],
      [
        "de",
        "ck"
      ],
      [
        "fahr",
        "er"
      ],
      [
        "Nä",
        "he"
      ],
      [
        "ss",
        "en"
      ],
      [
        "tal",
        "king"
      ],
      [
        "f",
        "on"
      ],
      [
        "some",
        "thing"
      ],
      [
        "b",
        "and"
      ],
      [
        "m",
        "id"
      ],
      [
        "w",
        "imm"
      ],
      [
        "st",
        "en"
      ],
      [
        "bei",
        "m"
      ],
      [
        "blon",
        "d"
      ],
      [
        "c",
        "l"
      ],
      [
        "boy",
        "s"
      ],
      [
        "kl",
        "eine"
      ],
      [
        "i",
        "p"
      ],
      [
        "m",
        "p"
      ],
      [
        "kl",
        "einen"
      ],
      [
        "c",
        "cer"
      ],
      [
        "G",
        "itar"
      ],
      [
        "P",
        "ark"
      ],
      [
        "h",
        "or"
      ],
      [
        "ein",
        "ander"
      ],
      [
        "und",
        "er"
      ],
      [
        "St",
        "ad"
      ],
      [
        "weiß",
        "er"
      ],
      [
        "ü",
        "t"
      ],
      [
        "Menschen",
        "menge"
      ],
      [
        "b",
        "es"
      ],
      [
        "g",
        "n"
      ],
      [
        "al",
        "ong"
      ],
      [
        "i",
        "re"
      ],
      [
        "ig",
        "er"
      ],
      [
        "walk",
        "s"
      ],
      [
        "st",
        "o"
      ],
      [
        "fo",
        "od"
      ],
      [
        "g",
        "a"
      ],
      [
        "ier",
        "en"
      ],
      [
        "st",
        "ri"
      ],
      [
        "bo",
        "ar"
      ],
      [
        "Hund",
        "e"
      ],
      [
        "H",
        "aar"
      ],
      [
        "d",
        "le"
      ],
      [
        "Ge",
        "h"
      ],
      [
        "wor",
        "king"
      ],
      [
        "isch",
        "e"
      ],
      [
        "aur",
        "ant"
      ],
      [
        "y",
        "s"
      ],
      [
        "ro",
        "ad"
      ],
      [
        "la",
        "dy"
      ],
      [
        "ge",
        "ther"
      ],
      [
        "to",
        "gether"
      ],
      [
        "so",
        "ccer"
      ],
      [
        "is",
        "h"
      ],
      [
        "men",
        "t"
      ],
      [
        "fahr",
        "en"
      ],
      [
        "Bo",
        "den"
      ],
      [
        "ih",
        "re"
      ],
      [
        "ro",
        "sa"
      ],
      [
        "d",
        "un"
      ],
      [
        "un",
        "iform"
      ],
      [
        "gra",
        "y"
      ],
      [
        "g",
        "rau"
      ],
      [
        "B",
        "er"
      ],
      [
        "al",
        "t"
      ],
      [
        "ct",
        "ion"
      ],
      [
        "lie",
        "gt"
      ],
      [
        "i",
        "ve"
      ],
      [
        "bic",
        "ycle"
      ],
      [
        "at",
        "t"
      ],
      [
        "sm",
        "iling"
      ],
      [
        "h",
        "im"
      ],
      [
        "D",
        "ie"
      ],
      [
        "ren",
        "nt"
      ],
      [
        "h",
        "as"
      ],
      [
        "play",
        "s"
      ],
      [
        "g",
        "ame"
      ],
      [
        "a",
        "k"
      ],
      [
        "ber",
        "eit"
      ],
      [
        "Fel",
        "d"
      ],
      [
        "Son",
        "nen"
      ],
      [
        "th",
        "em"
      ],
      [
        "ben",
        "ch"
      ],
      [
        "Stra",
        "ßen"
      ],
      [
        "r",
        "ying"
      ],
      [
        "s",
        "and"
      ],
      [
        "sch",
        "ie"
      ],
      [
        "V",
        "ier"
      ],
      [
        "W",
        "e"
      ],
      [
        "zu",
        "sam"
      ],
      [
        "c",
        "an"
      ],
      [
        "lat",
        "z"
      ],
      [
        "fü",
        "hr"
      ],
      [
        "Gitar",
        "re"
      ],
      [
        "i",
        "ch"
      ],
      [
        "schau",
        "en"
      ],
      [
        "Stad",
        "t"
      ],
      [
        "k",
        "el"
      ],
      [
        "t",
        "ri"
      ],
      [
        "Asi",
        "an"
      ],
      [
        "de",
        "d"
      ],
      [
        "let",
        "ter"
      ],
      [
        "p",
        "le"
      ],
      [
        "t",
        "el"
      ],
      [
        "ar",
        "m"
      ],
      [
        "hol",
        "ds"
      ],
      [
        "at",
        "er"
      ],
      [
        "ihr",
        "en"
      ],
      [
        "s",
        "we"
      ],
      [
        "ä",
        "ft"
      ],
      [
        "fa",
        "ce"
      ],
      [
        "B",
        "lu"
      ],
      [
        "g",
        "lasses"
      ],
      [
        "po",
        "si"
      ],
      [
        "cl",
        "im"
      ],
      [
        "J",
        "e"
      ],
      [
        "Fo",
        "ur"
      ],
      [
        "t",
        "re"
      ],
      [
        "o",
        "k"
      ],
      [
        "ä",
        "r"
      ],
      [
        "ch",
        "air"
      ],
      [
        "her",
        "um"
      ],
      [
        "ig",
        "ht"
      ],
      [
        "pan",
        "ts"
      ],
      [
        "be",
        "f"
      ],
      [
        "sh",
        "orts"
      ],
      [
        "p",
        "ur"
      ],
      [
        "st",
        "u"
      ],
      [
        "ro",
        "om"
      ],
      [
        "ge",
        "t"
      ],
      [
        "braun",
        "en"
      ],
      [
        "zusam",
        "men"
      ],
      [
        "w",
        "ing"
      ],
      [
        "stei",
        "g"
      ],
      [
        "P",
        "fer"
      ],
      [
        "s",
        "pe"
      ],
      [
        "at",
        "ch"
      ],
      [
        "ri",
        "cht"
      ],
      [
        "M",
        "otor"
      ],
      [
        "em",
        "a"
      ],
      [
        "braun",
        "er"
      ],
      [
        "Au",
        "to"
      ],
      [
        "asi",
        "at"
      ],
      [
        "S",
        "and"
      ],
      [
        "k",
        "id"
      ],
      [
        "l",
        "as"
      ],
      [
        "st",
        "age"
      ],
      [
        "der",
        "n"
      ],
      [
        "T",
        "ri"
      ],
      [
        "a",
        "bo"
      ],
      [
        "i",
        "z"
      ],
      [
        "ge",
        "sch"
      ],
      [
        "co",
        "up"
      ],
      [
        "n",
        "a"
      ],
      [
        "car",
        "rying"
      ],
      [
        "d",
        "irt"
      ],
      [
        "w",
        "ach"
      ],
      [
        "ba",
        "by"
      ],
      [
        "bo",
        "at"
      ],
      [
        "te",
        "am"
      ],
      [
        "po",
        "ol"
      ],
      [
        "l",
        "au"
      ],
      [
        "s",
        "ein"
      ],
      [
        "E",
        "r"
      ],
      [
        "m",
        "ark"
      ],
      [
        "älter",
        "er"
      ],
      [
        "k",
        "auf"
      ],
      [
        "et",
        "te"
      ],
      [
        "li",
        "ght"
      ],
      [
        "rau",
        "ßen"
      ],
      [
        "pa",
        "in"
      ],
      [
        "p",
        "en"
      ],
      [
        "p",
        "ar"
      ],
      [
        "be",
        "deck"
      ],
      [
        "coup",
        "le"
      ],
      [
        "Je",
        "ans"
      ],
      [
        "Bü",
        "hne"
      ],
      [
        "clim",
        "b"
      ],
      [
        "t",
        "ree"
      ],
      [
        "W",
        "o"
      ],
      [
        "e",
        "ach"
      ],
      [
        "out",
        "door"
      ],
      [
        "co",
        "at"
      ],
      [
        "sie",
        "ht"
      ],
      [
        "d",
        "raußen"
      ],
      [
        "loo",
        "k"
      ],
      [
        "f",
        "ema"
      ],
      [
        "St",
        "u"
      ],
      [
        "da",
        "y"
      ],
      [
        "u",
        "lt"
      ],
      [
        "mo",
        "untain"
      ],
      [
        "Br",
        "ille"
      ],
      [
        "el",
        "le"
      ],
      [
        "sh",
        "op"
      ],
      [
        "Se",
        "veral"
      ],
      [
        "ra",
        "ce"
      ],
      [
        "Geh",
        "weg"
      ],
      [
        "l",
        "ong"
      ],
      [
        "si",
        "gn"
      ],
      [
        "h",
        "ell"
      ],
      [
        "s",
        "eine"
      ],
      [
        "Sk",
        "ateboard"
      ],
      [
        "le",
        "y"
      ],
      [
        "re",
        "ad"
      ],
      [
        "ba",
        "g"
      ],
      [
        "Ba",
        "by"
      ],
      [
        "Ar",
        "beit"
      ],
      [
        "je",
        "ans"
      ],
      [
        "blick",
        "t"
      ],
      [
        "wach",
        "sen"
      ],
      [
        "a",
        "ding"
      ],
      [
        "s",
        "un"
      ],
      [
        "ta",
        "king"
      ],
      [
        "G",
        "el"
      ],
      [
        "M",
        "ik"
      ],
      [
        "c",
        "or"
      ],
      [
        "m",
        "ic"
      ],
      [
        "st",
        "ü"
      ],
      [
        "l",
        "aufen"
      ],
      [
        "isch",
        "er"
      ],
      [
        "wa",
        "gen"
      ],
      [
        "hin",
        "unter"
      ],
      [
        "i",
        "de"
      ],
      [
        "s",
        "le"
      ],
      [
        "u",
        "st"
      ],
      [
        "arbeit",
        "et"
      ],
      [
        "Mik",
        "ro"
      ],
      [
        "sch",
        "lä"
      ],
      [
        "da",
        "bei"
      ],
      [
        "E",
        "ssen"
      ],
      [
        "H",
        "ol"
      ],
      [
        "al",
        "d"
      ],
      [
        "do",
        "ing"
      ],
      [
        "a",
        "in"
      ],
      [
        "s",
        "einen"
      ],
      [
        "ck",
        "t"
      ],
      [
        "am",
        "m"
      ],
      [
        "e",
        "p"
      ],
      [
        "f",
        "lo"
      ],
      [
        "g",
        "i"
      ],
      [
        "et",
        "t"
      ],
      [
        "mic",
        "ro"
      ],
      [
        "a",
        "cross"
      ],
      [
        "d",
        "ark"
      ],
      [
        "e",
        "x"
      ],
      [
        "w",
        "ie"
      ],
      [
        "ho",
        "to"
      ],
      [
        "boar",
        "der"
      ],
      [
        "w",
        "in"
      ],
      [
        "ein",
        "g"
      ],
      [
        "ro",
        "l"
      ],
      [
        "V",
        "er"
      ],
      [
        "u",
        "th"
      ],
      [
        "sch",
        "n"
      ],
      [
        "watch",
        "ing"
      ],
      [
        "it",
        "ing"
      ],
      [
        "Sch",
        "wimm"
      ],
      [
        "li",
        "ch"
      ],
      [
        "br",
        "ille"
      ],
      [
        "H",
        "än"
      ],
      [
        "M",
        "u"
      ],
      [
        "u",
        "b"
      ],
      [
        "tra",
        "gen"
      ],
      [
        "R",
        "en"
      ],
      [
        "are",
        "a"
      ],
      [
        "ma",
        "le"
      ],
      [
        "fe",
        "st"
      ],
      [
        "an",
        "gen"
      ],
      [
        "tra",
        "in"
      ],
      [
        "cke",
        "y"
      ],
      [
        "F",
        "e"
      ],
      [
        "ge",
        "gen"
      ],
      [
        "mid",
        "dle"
      ],
      [
        "i",
        "v"
      ],
      [
        "si",
        "c"
      ],
      [
        "m",
        "otor"
      ],
      [
        "p",
        "hoto"
      ],
      [
        "es",
        "s"
      ],
      [
        "F",
        "r"
      ],
      [
        "f",
        "ri"
      ],
      [
        "vers",
        "ucht"
      ],
      [
        "i",
        "o"
      ],
      [
        "läch",
        "eln"
      ],
      [
        "U",
        "n"
      ],
      [
        "B",
        "e"
      ],
      [
        "B",
        "ank"
      ],
      [
        "k",
        "ur"
      ],
      [
        "sto",
        "re"
      ],
      [
        "B",
        "aseball"
      ],
      [
        "d",
        "ar"
      ],
      [
        "co",
        "ver"
      ],
      [
        "jump",
        "s"
      ],
      [
        "f",
        "all"
      ],
      [
        "hand",
        "s"
      ],
      [
        "hel",
        "met"
      ],
      [
        "Bau",
        "m"
      ],
      [
        "W",
        "and"
      ],
      [
        "arbeit",
        "en"
      ],
      [
        "zei",
        "gt"
      ],
      [
        "c",
        "li"
      ],
      [
        "wh",
        "o"
      ],
      [
        "ig",
        "h"
      ],
      [
        "k",
        "letter"
      ],
      [
        "z",
        "er"
      ],
      [
        "hor",
        "se"
      ],
      [
        "do",
        "w"
      ],
      [
        "D",
        "ame"
      ],
      [
        "sw",
        "ing"
      ],
      [
        "perform",
        "ing"
      ],
      [
        "Hol",
        "z"
      ],
      [
        "H",
        "el"
      ],
      [
        "P",
        "aar"
      ],
      [
        "a",
        "th"
      ],
      [
        "i",
        "red"
      ],
      [
        "r",
        "ä"
      ],
      [
        "gest",
        "rei"
      ],
      [
        "B",
        "ür"
      ],
      [
        "e",
        "ating"
      ],
      [
        "u",
        "ck"
      ],
      [
        "ma",
        "chen"
      ],
      [
        "K",
        "l"
      ],
      [
        "R",
        "o"
      ],
      [
        "f",
        "it"
      ],
      [
        "t",
        "t"
      ],
      [
        "u",
        "sing"
      ],
      [
        "gro",
        "ße"
      ],
      [
        "li",
        "chen"
      ],
      [
        "läch",
        "elt"
      ],
      [
        "fema",
        "le"
      ],
      [
        "b",
        "eing"
      ],
      [
        "in",
        "s"
      ],
      [
        "stri",
        "ped"
      ],
      [
        "H",
        "ü"
      ],
      [
        "b",
        "aseball"
      ],
      [
        "orange",
        "farbenen"
      ],
      [
        "gu",
        "y"
      ],
      [
        "le",
        "a"
      ],
      [
        "am",
        "il"
      ],
      [
        "col",
        "or"
      ],
      [
        "Bür",
        "ger"
      ],
      [
        "M",
        "au"
      ],
      [
        "c",
        "re"
      ],
      [
        "it",
        "en"
      ],
      [
        "on",
        "s"
      ],
      [
        "mo",
        "uth"
      ],
      [
        "b",
        "un"
      ],
      [
        "k",
        "ot"
      ],
      [
        "sch",
        "a"
      ],
      [
        "si",
        "k"
      ],
      [
        "ut",
        "z"
      ],
      [
        "mu",
        "sic"
      ],
      [
        "ren",
        "nen"
      ],
      [
        "ihr",
        "em"
      ],
      [
        "grü",
        "n"
      ],
      [
        "fo",
        "otball"
      ],
      [
        "p",
        "ack"
      ],
      [
        "ga",
        "ther"
      ],
      [
        "k",
        "es"
      ],
      [
        "p",
        "ut"
      ],
      [
        "te",
        "d"
      ],
      [
        "R",
        "ad"
      ],
      [
        "p",
        "et"
      ],
      [
        "Bo",
        "ot"
      ],
      [
        "ih",
        "m"
      ],
      [
        "Ges",
        "ch"
      ],
      [
        "in",
        "stru"
      ],
      [
        "Ges",
        "icht"
      ],
      [
        "pur",
        "ple"
      ],
      [
        "g",
        "h"
      ],
      [
        "p",
        "t"
      ],
      [
        "ir",
        "m"
      ],
      [
        "kleid",
        "ung"
      ],
      [
        "Bürger",
        "steig"
      ],
      [
        "un",
        "st"
      ],
      [
        "Motor",
        "rad"
      ],
      [
        "c",
        "a"
      ],
      [
        "n",
        "et"
      ],
      [
        "p",
        "rep"
      ],
      [
        "au",
        "m"
      ],
      [
        "p",
        "latz"
      ],
      [
        "junge",
        "s"
      ],
      [
        "to",
        "war"
      ],
      [
        "ha",
        "ired"
      ],
      [
        "Ho",
        "se"
      ],
      [
        "älter",
        "e"
      ],
      [
        "B",
        "ild"
      ],
      [
        "p",
        "ol"
      ],
      [
        "s",
        "es"
      ],
      [
        "lie",
        "st"
      ],
      [
        "T",
        "en"
      ],
      [
        "r",
        "ü"
      ],
      [
        "her",
        "e"
      ],
      [
        "ap",
        "er"
      ],
      [
        "B",
        "and"
      ],
      [
        "ten",
        "nis"
      ],
      [
        "ander",
        "er"
      ],
      [
        "Tri",
        "kot"
      ],
      [
        "k",
        "om"
      ],
      [
        "v",
        "ie"
      ],
      [
        "en",
        "jo"
      ],
      [
        "po",
        "sing"
      ],
      [
        "run",
        "s"
      ],
      [
        "führ",
        "t"
      ],
      [
        "win",
        "dow"
      ],
      [
        "Y",
        "oung"
      ],
      [
        "Z",
        "u"
      ],
      [
        "d",
        "ri"
      ],
      [
        "sp",
        "richt"
      ],
      [
        "unter",
        "halten"
      ],
      [
        "scha",
        "ft"
      ],
      [
        "Ten",
        "nis"
      ],
      [
        "s",
        "ung"
      ],
      [
        "st",
        "ra"
      ],
      [
        "ad",
        "ult"
      ],
      [
        "hä",
        "n"
      ],
      [
        "z",
        "ie"
      ],
      [
        "re",
        "ading"
      ],
      [
        "e",
        "y"
      ],
      [
        "p",
        "s"
      ],
      [
        "s",
        "er"
      ],
      [
        "be",
        "le"
      ],
      [
        "stru",
        "ction"
      ],
      [
        "b",
        "al"
      ],
      [
        "p",
        "art"
      ],
      [
        "u",
        "se"
      ],
      [
        "le",
        "fon"
      ],
      [
        "wo",
        "o"
      ],
      [
        "pa",
        "st"
      ],
      [
        "f",
        "ten"
      ],
      [
        "ve",
        "st"
      ],
      [
        "ff",
        "it"
      ],
      [
        "ies",
        "e"
      ],
      [
        "sung",
        "lasses"
      ],
      [
        "f",
        "low"
      ],
      [
        "k",
        "en"
      ],
      [
        "o",
        "th"
      ],
      [
        "p",
        "ul"
      ],
      [
        "sh",
        "ow"
      ],
      [
        "Au",
        "f"
      ],
      [
        "W",
        "ald"
      ],
      [
        "i",
        "et"
      ],
      [
        "k",
        "ar"
      ],
      [
        "p",
        "ass"
      ],
      [
        "st",
        "ick"
      ],
      [
        "weiß",
        "em"
      ],
      [
        "Haar",
        "en"
      ],
      [
        "d",
        "rei"
      ],
      [
        "ce",
        "an"
      ],
      [
        "Ba",
        "hn"
      ],
      [
        "clo",
        "thing"
      ],
      [
        "th",
        "ree"
      ],
      [
        "bo",
        "w"
      ],
      [
        "play",
        "ers"
      ],
      [
        "ind",
        "et"
      ],
      [
        "micro",
        "phone"
      ],
      [
        "Mu",
        "sik"
      ],
      [
        "Spiel",
        "er"
      ],
      [
        "Ho",
        "sen"
      ],
      [
        "T",
        "here"
      ],
      [
        "b",
        "asketball"
      ],
      [
        "u",
        "er"
      ],
      [
        "au",
        "t"
      ],
      [
        "üt",
        "ze"
      ],
      [
        "k",
        "n"
      ],
      [
        "sw",
        "imm"
      ],
      [
        "cover",
        "ed"
      ],
      [
        "K",
        "ü"
      ],
      [
        "l",
        "ine"
      ],
      [
        "m",
        "ar"
      ],
      [
        "z",
        "um"
      ],
      [
        "to",
        "y"
      ],
      [
        "ha",
        "ar"
      ],
      [
        "Me",
        "er"
      ],
      [
        "f",
        "ish"
      ],
      [
        "ß",
        "t"
      ],
      [
        "pu",
        "ter"
      ],
      [
        "bet",
        "ra"
      ],
      [
        "o",
        "cean"
      ],
      [
        "wo",
        "od"
      ],
      [
        "grau",
        "en"
      ],
      [
        "K",
        "unst"
      ],
      [
        "ß",
        "er"
      ],
      [
        "Sonnen",
        "brille"
      ],
      [
        "B",
        "asketball"
      ],
      [
        "watch",
        "es"
      ],
      [
        "clo",
        "th"
      ],
      [
        "Re",
        "st"
      ],
      [
        "Pfer",
        "d"
      ],
      [
        "f",
        "l"
      ],
      [
        "it",
        "et"
      ],
      [
        "sh",
        "e"
      ],
      [
        "dur",
        "ing"
      ],
      [
        "rest",
        "aurant"
      ],
      [
        "dan",
        "cing"
      ],
      [
        "climb",
        "ing"
      ],
      [
        "motor",
        "c"
      ],
      [
        "E",
        "is"
      ],
      [
        "w",
        "ä"
      ],
      [
        "Fr",
        "is"
      ],
      [
        "c",
        "ap"
      ],
      [
        "h",
        "ill"
      ],
      [
        "blau",
        "em"
      ],
      [
        "bri",
        "ght"
      ],
      [
        "gekleidet",
        "e"
      ],
      [
        "kid",
        "s"
      ],
      [
        "s",
        "einer"
      ],
      [
        "ar",
        "s"
      ],
      [
        "ge",
        "b"
      ],
      [
        "der",
        "ly"
      ],
      [
        "h",
        "ang"
      ],
      [
        "em",
        "ent"
      ],
      [
        "Fo",
        "otball"
      ],
      [
        "T",
        "ag"
      ],
      [
        "c",
        "es"
      ],
      [
        "ro",
        "und"
      ],
      [
        "be",
        "ob"
      ],
      [
        "gen",
        "d"
      ],
      [
        "shirt",
        "s"
      ],
      [
        "Fel",
        "sen"
      ],
      [
        "ag",
        "ain"
      ],
      [
        "K",
        "o"
      ],
      [
        "L",
        "a"
      ],
      [
        "g",
        "g"
      ],
      [
        "Zu",
        "schau"
      ],
      [
        "P",
        "ol"
      ],
      [
        "an",
        "z"
      ],
      [
        "as",
        "ch"
      ],
      [
        "Gel",
        "än"
      ],
      [
        "again",
        "st"
      ],
      [
        "Hel",
        "m"
      ],
      [
        "e",
        "v"
      ],
      [
        "l",
        "en"
      ],
      [
        "op",
        "en"
      ],
      [
        "ri",
        "des"
      ],
      [
        "um",
        "bre"
      ],
      [
        "sk",
        "ateboard"
      ],
      [
        "sing",
        "t"
      ],
      [
        "kletter",
        "t"
      ],
      [
        "c",
        "atch"
      ],
      [
        "h",
        "igh"
      ],
      [
        "o",
        "ol"
      ],
      [
        "o",
        "red"
      ],
      [
        "it",
        "ion"
      ],
      [
        "ra",
        "in"
      ],
      [
        "sm",
        "ile"
      ],
      [
        "ffit",
        "i"
      ],
      [
        "R",
        "ol"
      ],
      [
        "f",
        "ol"
      ],
      [
        "el",
        "derly"
      ],
      [
        "ih",
        "nen"
      ],
      [
        "Er",
        "wachsen"
      ],
      [
        "P",
        "ul"
      ],
      [
        "s",
        "st"
      ],
      [
        "sch",
        "u"
      ],
      [
        "wei",
        "ße"
      ],
      [
        "arbeit",
        "er"
      ],
      [
        "ley",
        "ball"
      ],
      [
        "R",
        "u"
      ],
      [
        "n",
        "o"
      ],
      [
        "Man",
        "tel"
      ],
      [
        "di",
        "es"
      ],
      [
        "dun",
        "kel"
      ],
      [
        "Ber",
        "g"
      ],
      [
        "F",
        "en"
      ],
      [
        "R",
        "ei"
      ],
      [
        "k",
        "ick"
      ],
      [
        "d",
        "is"
      ],
      [
        "t",
        "et"
      ],
      [
        "at",
        "ed"
      ],
      [
        "bl",
        "o"
      ],
      [
        "ver",
        "y"
      ],
      [
        "Sh",
        "orts"
      ],
      [
        "mark",
        "et"
      ],
      [
        "f",
        "el"
      ],
      [
        "bo",
        "ok"
      ],
      [
        "O",
        "ne"
      ],
      [
        "st",
        "um"
      ],
      [
        "posi",
        "ert"
      ],
      [
        "tre",
        "es"
      ],
      [
        "abo",
        "ut"
      ],
      [
        "woo",
        "den"
      ],
      [
        "a",
        "un"
      ],
      [
        "i",
        "x"
      ],
      [
        "u",
        "chen"
      ],
      [
        "be",
        "e"
      ],
      [
        "tr",
        "ink"
      ],
      [
        "ap",
        "pe"
      ],
      [
        "sk",
        "ate"
      ],
      [
        "ha",
        "ving"
      ],
      [
        "dar",
        "auf"
      ],
      [
        "Fen",
        "ster"
      ],
      [
        "P",
        "f"
      ],
      [
        "p",
        "lan"
      ],
      [
        "ö",
        "ff"
      ],
      [
        "em",
        "and"
      ],
      [
        "as",
        "che"
      ],
      [
        "flo",
        "or"
      ],
      [
        "i",
        "en"
      ],
      [
        "l",
        "in"
      ],
      [
        "ut",
        "sch"
      ],
      [
        "lo",
        "ver"
      ],
      [
        "wa",
        "iting"
      ],
      [
        "ör",
        "per"
      ],
      [
        "Fe",
        "uer"
      ],
      [
        "d",
        "ge"
      ],
      [
        "an",
        "zug"
      ],
      [
        "the",
        "y"
      ],
      [
        "Mikro",
        "fon"
      ],
      [
        "Rest",
        "aurant"
      ],
      [
        "C",
        "h"
      ],
      [
        "v",
        "el"
      ],
      [
        "tr",
        "uck"
      ],
      [
        "blau",
        "er"
      ],
      [
        "wir",
        "ft"
      ],
      [
        "bef",
        "indet"
      ],
      [
        "V",
        "or"
      ],
      [
        "c",
        "ut"
      ],
      [
        "i",
        "al"
      ],
      [
        "m",
        "m"
      ],
      [
        "z",
        "ur"
      ],
      [
        "Blu",
        "men"
      ],
      [
        "swimm",
        "ing"
      ],
      [
        "M",
        "it"
      ],
      [
        "al",
        "ter"
      ],
      [
        "am",
        "pf"
      ],
      [
        "ur",
        "n"
      ],
      [
        "li",
        "p"
      ],
      [
        "get",
        "ting"
      ],
      [
        "color",
        "ful"
      ],
      [
        "g",
        "le"
      ],
      [
        "an",
        "ce"
      ],
      [
        "es",
        "sen"
      ],
      [
        "co",
        "stum"
      ],
      [
        "H",
        "er"
      ],
      [
        "a",
        "c"
      ],
      [
        "work",
        "ers"
      ],
      [
        "h",
        "ü"
      ],
      [
        "an",
        "ing"
      ],
      [
        "as",
        "en"
      ],
      [
        "la",
        "p"
      ],
      [
        "sh",
        "a"
      ],
      [
        "co",
        "ur"
      ],
      [
        "tr",
        "ying"
      ],
      [
        "Spiel",
        "zeug"
      ],
      [
        "con",
        "struction"
      ],
      [
        "Gesch",
        "äft"
      ],
      [
        "s",
        "el"
      ],
      [
        "ck",
        "et"
      ],
      [
        "as",
        "h"
      ],
      [
        "ig",
        "ar"
      ],
      [
        "car",
        "t"
      ],
      [
        "bereit",
        "et"
      ],
      [
        "motorc",
        "ycle"
      ],
      [
        "F",
        "l"
      ],
      [
        "p",
        "ie"
      ],
      [
        "bo",
        "x"
      ],
      [
        "f",
        "ire"
      ],
      [
        "en",
        "a"
      ],
      [
        "at",
        "ue"
      ],
      [
        "den",
        "en"
      ],
      [
        "schwarz",
        "em"
      ],
      [
        "Ba",
        "de"
      ],
      [
        "n",
        "ight"
      ],
      [
        "y",
        "cli"
      ],
      [
        "is",
        "st"
      ],
      [
        "Sch",
        "ild"
      ],
      [
        "gel",
        "b"
      ],
      [
        "hn",
        "t"
      ],
      [
        "vers",
        "amm"
      ],
      [
        "gekleidet",
        "er"
      ],
      [
        "bus",
        "y"
      ],
      [
        "Kl",
        "ein"
      ],
      [
        "ycli",
        "st"
      ],
      [
        "c",
        "ell"
      ],
      [
        "k",
        "it"
      ],
      [
        "s",
        "on"
      ],
      [
        "ch",
        "ten"
      ],
      [
        "sing",
        "ing"
      ],
      [
        "Re",
        "gen"
      ],
      [
        "D",
        "as"
      ],
      [
        "k",
        "ind"
      ],
      [
        "se",
        "hr"
      ],
      [
        "Sch",
        "u"
      ],
      [
        "fen",
        "ce"
      ],
      [
        "spring",
        "en"
      ],
      [
        "Wo",
        "man"
      ],
      [
        "r",
        "ung"
      ],
      [
        "lu",
        "ss"
      ],
      [
        "T",
        "his"
      ],
      [
        "a",
        "z"
      ],
      [
        "bo",
        "dy"
      ],
      [
        "ne",
        "w"
      ],
      [
        "Pul",
        "lover"
      ],
      [
        "R",
        "aum"
      ],
      [
        "d",
        "u"
      ],
      [
        "k",
        "a"
      ],
      [
        "st",
        "air"
      ],
      [
        "as",
        "se"
      ],
      [
        "mit",
        "ten"
      ],
      [
        "lan",
        "gen"
      ],
      [
        "rot",
        "em"
      ],
      [
        "M",
        "et"
      ],
      [
        "l",
        "and"
      ],
      [
        "o",
        "der"
      ],
      [
        "p",
        "re"
      ],
      [
        "ri",
        "es"
      ],
      [
        "pa",
        "th"
      ],
      [
        "We",
        "g"
      ],
      [
        "Arbeit",
        "er"
      ],
      [
        "Z",
        "eit"
      ],
      [
        "le",
        "ss"
      ],
      [
        "at",
        "en"
      ],
      [
        "ro",
        "ter"
      ],
      [
        "co",
        "o"
      ],
      [
        "T",
        "rep"
      ],
      [
        "g",
        "ar"
      ],
      [
        "or",
        "s"
      ],
      [
        "ri",
        "de"
      ],
      [
        "li",
        "che"
      ],
      [
        "sur",
        "f"
      ],
      [
        "com",
        "pet"
      ],
      [
        "D",
        "e"
      ],
      [
        "s",
        "li"
      ],
      [
        "z",
        "w"
      ],
      [
        "la",
        "ying"
      ],
      [
        "li",
        "cher"
      ],
      [
        "F",
        "re"
      ],
      [
        "ie",
        "le"
      ],
      [
        "ter",
        "n"
      ],
      [
        "Männer",
        "n"
      ],
      [
        "An",
        "zug"
      ],
      [
        "S",
        "ome"
      ],
      [
        "W",
        "iese"
      ],
      [
        "b",
        "ig"
      ],
      [
        "d",
        "ler"
      ],
      [
        "f",
        "lag"
      ],
      [
        "le",
        "hnt"
      ],
      [
        "und",
        "en"
      ],
      [
        "schwarz",
        "e"
      ],
      [
        "Sp",
        "ort"
      ],
      [
        "hat",
        "s"
      ],
      [
        "Kinder",
        "n"
      ],
      [
        "gestrei",
        "ften"
      ],
      [
        "W",
        "ei"
      ],
      [
        "be",
        "cken"
      ],
      [
        "te",
        "lefon"
      ],
      [
        "war",
        "tet"
      ],
      [
        "dr",
        "ink"
      ],
      [
        "e",
        "le"
      ],
      [
        "k",
        "örper"
      ],
      [
        "p",
        "aper"
      ],
      [
        "je",
        "ct"
      ],
      [
        "si",
        "l"
      ],
      [
        "sle",
        "e"
      ],
      [
        "cloth",
        "es"
      ],
      [
        "g",
        "em"
      ],
      [
        "in",
        "side"
      ],
      [
        "ri",
        "ver"
      ],
      [
        "Sch",
        "utz"
      ],
      [
        "ik",
        "an"
      ],
      [
        "wer",
        "den"
      ],
      [
        "oth",
        "ers"
      ],
      [
        "kit",
        "chen"
      ],
      [
        "d",
        "ra"
      ],
      [
        "k",
        "o"
      ],
      [
        "l",
        "la"
      ],
      [
        "m",
        "ach"
      ],
      [
        "s",
        "ell"
      ],
      [
        "ho",
        "ckey"
      ],
      [
        "grass",
        "y"
      ],
      [
        "ün",
        "f"
      ],
      [
        "Fris",
        "bee"
      ],
      [
        "cell",
        "phone"
      ],
      [
        "S",
        "ur"
      ],
      [
        "y",
        "m"
      ],
      [
        "cht",
        "et"
      ],
      [
        "ma",
        "king"
      ],
      [
        "sur",
        "round"
      ],
      [
        "M",
        "ark"
      ],
      [
        "it",
        "er"
      ],
      [
        "wh",
        "e"
      ],
      [
        "Ar",
        "m"
      ],
      [
        "vol",
        "ler"
      ],
      [
        "posi",
        "eren"
      ],
      [
        "Ru",
        "cks"
      ],
      [
        "F",
        "luss"
      ],
      [
        "N",
        "e"
      ],
      [
        "O",
        "b"
      ],
      [
        "k",
        "an"
      ],
      [
        "in",
        "i"
      ],
      [
        "der",
        "s"
      ],
      [
        "out",
        "fit"
      ],
      [
        "back",
        "pack"
      ],
      [
        "bri",
        "ck"
      ],
      [
        "pu",
        "sh"
      ],
      [
        "tri",
        "ck"
      ],
      [
        "Blu",
        "se"
      ],
      [
        "Mau",
        "l"
      ],
      [
        "B",
        "uch"
      ],
      [
        "ge",
        "ben"
      ],
      [
        "ei",
        "ch"
      ],
      [
        "ta",
        "kes"
      ],
      [
        "tra",
        "ck"
      ],
      [
        "Ober",
        "körper"
      ],
      [
        "Stu",
        "hl"
      ],
      [
        "le",
        "i"
      ],
      [
        "ic",
        "an"
      ],
      [
        "met",
        "al"
      ],
      [
        "lau",
        "gh"
      ],
      [
        "umbre",
        "lla"
      ],
      [
        "K",
        "ar"
      ],
      [
        "W",
        "a"
      ],
      [
        "d",
        "et"
      ],
      [
        "ap",
        "p"
      ],
      [
        "än",
        "ger"
      ],
      [
        "acht",
        "et"
      ],
      [
        "imm",
        "er"
      ],
      [
        "ful",
        "l"
      ],
      [
        "kauf",
        "t"
      ],
      [
        "towar",
        "ds"
      ],
      [
        "bele",
        "b"
      ],
      [
        "M",
        "o"
      ],
      [
        "S",
        "to"
      ],
      [
        "o",
        "ben"
      ],
      [
        "v",
        "iel"
      ],
      [
        "at",
        "es"
      ],
      [
        "at",
        "shirt"
      ],
      [
        "St",
        "ein"
      ],
      [
        "Hü",
        "gel"
      ],
      [
        "F",
        "ünf"
      ],
      [
        "y",
        "ard"
      ],
      [
        "st",
        "one"
      ],
      [
        "ell",
        "en"
      ],
      [
        "lie",
        "gen"
      ],
      [
        "enjo",
        "ying"
      ],
      [
        "zie",
        "ht"
      ],
      [
        "U",
        "m"
      ],
      [
        "V",
        "iele"
      ],
      [
        "n",
        "y"
      ],
      [
        "ph",
        "on"
      ],
      [
        "schn",
        "ei"
      ],
      [
        "P",
        "ro"
      ],
      [
        "T",
        "o"
      ],
      [
        "war",
        "ten"
      ],
      [
        "über",
        "qu"
      ],
      [
        "col",
        "ored"
      ],
      [
        "Ren",
        "nen"
      ],
      [
        "igar",
        "ette"
      ],
      [
        "in",
        "den"
      ],
      [
        "sch",
        "la"
      ],
      [
        "sch",
        "irm"
      ],
      [
        "ug",
        "g"
      ],
      [
        "rol",
        "ler"
      ],
      [
        "Met",
        "all"
      ],
      [
        "l",
        "it"
      ],
      [
        "t",
        "ank"
      ],
      [
        "es",
        "e"
      ],
      [
        "sp",
        "ort"
      ],
      [
        "co",
        "w"
      ],
      [
        "dan",
        "ce"
      ],
      [
        "tan",
        "zen"
      ],
      [
        "read",
        "y"
      ],
      [
        "betra",
        "chtet"
      ],
      [
        "Ko",
        "stü"
      ],
      [
        "pie",
        "ce"
      ],
      [
        "h",
        "ard"
      ],
      [
        "h",
        "ör"
      ],
      [
        "i",
        "an"
      ],
      [
        "ier",
        "ten"
      ],
      [
        "whe",
        "el"
      ],
      [
        "b",
        "an"
      ],
      [
        "r",
        "y"
      ],
      [
        "gen",
        "ie"
      ],
      [
        "ho",
        "use"
      ],
      [
        "Hand",
        "y"
      ],
      [
        "dun",
        "kl"
      ],
      [
        "zw",
        "ischen"
      ],
      [
        "F",
        "ive"
      ],
      [
        "S",
        "now"
      ],
      [
        "ü",
        "cken"
      ],
      [
        "st",
        "ar"
      ],
      [
        "äu",
        "men"
      ],
      [
        "B",
        "et"
      ],
      [
        "k",
        "is"
      ],
      [
        "ä",
        "t"
      ],
      [
        "la",
        "ke"
      ],
      [
        "fe",
        "e"
      ],
      [
        "ba",
        "hn"
      ],
      [
        "äu",
        "fer"
      ],
      [
        "blon",
        "de"
      ],
      [
        "dr",
        "um"
      ],
      [
        "pain",
        "ting"
      ],
      [
        "A",
        "fri"
      ],
      [
        "G",
        "ra"
      ],
      [
        "H",
        "aus"
      ],
      [
        "P",
        "ap"
      ],
      [
        "ü",
        "cke"
      ],
      [
        "rei",
        "bt"
      ],
      [
        "Leut",
        "en"
      ],
      [
        "dr",
        "in"
      ],
      [
        "schlä",
        "ft"
      ],
      [
        "S",
        "o"
      ],
      [
        "k",
        "ü"
      ],
      [
        "p",
        "ra"
      ],
      [
        "re",
        "itet"
      ],
      [
        "is",
        "e"
      ],
      [
        "ten",
        "t"
      ],
      [
        "hä",
        "ut"
      ],
      [
        "fo",
        "re"
      ],
      [
        "amer",
        "ikan"
      ],
      [
        "pa",
        "ar"
      ],
      [
        "swe",
        "ater"
      ],
      [
        "Ch",
        "ild"
      ],
      [
        "M",
        "ütze"
      ],
      [
        "S",
        "eil"
      ],
      [
        "s",
        "ub"
      ],
      [
        "ra",
        "mp"
      ],
      [
        "ut",
        "ter"
      ],
      [
        "ze",
        "it"
      ],
      [
        "Bau",
        "arbeiter"
      ],
      [
        "photo",
        "gra"
      ],
      [
        "em",
        "p"
      ],
      [
        "bo",
        "ot"
      ],
      [
        "se",
        "veral"
      ],
      [
        "Sch",
        "n"
      ],
      [
        "ist",
        "en"
      ],
      [
        "abo",
        "ve"
      ],
      [
        "Sto",
        "ck"
      ],
      [
        "A",
        "mer"
      ],
      [
        "c",
        "al"
      ],
      [
        "c",
        "ur"
      ],
      [
        "k",
        "or"
      ],
      [
        "al",
        "ten"
      ],
      [
        "ro",
        "w"
      ],
      [
        "man",
        "n"
      ],
      [
        "te",
        "st"
      ],
      [
        "ha",
        "ben"
      ],
      [
        "imm",
        "t"
      ],
      [
        "O",
        "ut"
      ],
      [
        "b",
        "el"
      ],
      [
        "m",
        "t"
      ],
      [
        "le",
        "d"
      ],
      [
        "de",
        "o"
      ],
      [
        "we",
        "hr"
      ],
      [
        "li",
        "la"
      ],
      [
        "go",
        "ing"
      ],
      [
        "Hän",
        "den"
      ],
      [
        "ena",
        "ger"
      ],
      [
        "p",
        "ad"
      ],
      [
        "on",
        "to"
      ],
      [
        "man",
        "y"
      ],
      [
        "bedeck",
        "ten"
      ],
      [
        "beob",
        "achtet"
      ],
      [
        "Klein",
        "kind"
      ],
      [
        "Mark",
        "t"
      ],
      [
        "ro",
        "pe"
      ],
      [
        "or",
        "k"
      ],
      [
        "mit",
        "einander"
      ],
      [
        "Sch",
        "ul"
      ],
      [
        "her",
        "unter"
      ],
      [
        "snow",
        "y"
      ],
      [
        "B",
        "äumen"
      ],
      [
        "K",
        "a"
      ],
      [
        "d",
        "el"
      ],
      [
        "m",
        "än"
      ],
      [
        "r",
        "it"
      ],
      [
        "ch",
        "ter"
      ],
      [
        "em",
        "an"
      ],
      [
        "ie",
        "d"
      ],
      [
        "ie",
        "gel"
      ],
      [
        "wa",
        "ve"
      ],
      [
        "Sk",
        "i"
      ],
      [
        "work",
        "er"
      ],
      [
        "shop",
        "ping"
      ],
      [
        "Rucks",
        "ack"
      ],
      [
        "C",
        "o"
      ],
      [
        "F",
        "amil"
      ],
      [
        "h",
        "u"
      ],
      [
        "l",
        "lt"
      ],
      [
        "r",
        "on"
      ],
      [
        "ver",
        "sch"
      ],
      [
        "gr",
        "ill"
      ],
      [
        "po",
        "in"
      ],
      [
        "gra",
        "f"
      ],
      [
        "hl",
        "en"
      ],
      [
        "asi",
        "an"
      ],
      [
        "tan",
        "zt"
      ],
      [
        "uniform",
        "s"
      ],
      [
        "surround",
        "ed"
      ],
      [
        "f",
        "angen"
      ],
      [
        "n",
        "ack"
      ],
      [
        "el",
        "lt"
      ],
      [
        "sch",
        "ö"
      ],
      [
        "li",
        "ke"
      ],
      [
        "ihr",
        "er"
      ],
      [
        "crow",
        "ded"
      ],
      [
        "Ren",
        "n"
      ],
      [
        "Rad",
        "fahrer"
      ],
      [
        "G",
        "er"
      ],
      [
        "L",
        "and"
      ],
      [
        "Z",
        "aun"
      ],
      [
        "st",
        "ic"
      ],
      [
        "sch",
        "nee"
      ],
      [
        "ie",
        "f"
      ],
      [
        "Ge",
        "wä"
      ],
      [
        "gesch",
        "äft"
      ],
      [
        "G",
        "ro"
      ],
      [
        "Z",
        "ug"
      ],
      [
        "st",
        "ein"
      ],
      [
        "le",
        "g"
      ],
      [
        "ge",
        "ar"
      ],
      [
        "be",
        "d"
      ],
      [
        "am",
        "en"
      ],
      [
        "po",
        "le"
      ],
      [
        "Au",
        "s"
      ],
      [
        "schie",
        "bt"
      ],
      [
        "smile",
        "s"
      ],
      [
        "C",
        "om"
      ],
      [
        "E",
        "n"
      ],
      [
        "d",
        "ition"
      ],
      [
        "r",
        "än"
      ],
      [
        "bes",
        "ide"
      ],
      [
        "outdoor",
        "s"
      ],
      [
        "Schwimm",
        "becken"
      ],
      [
        "fri",
        "end"
      ],
      [
        "instru",
        "men"
      ],
      [
        "asch",
        "ine"
      ],
      [
        "män",
        "n"
      ],
      [
        "B",
        "l"
      ],
      [
        "f",
        "rei"
      ],
      [
        "i",
        "gt"
      ],
      [
        "v",
        "om"
      ],
      [
        "w",
        "and"
      ],
      [
        "to",
        "d"
      ],
      [
        "con",
        "vers"
      ],
      [
        "Se",
        "e"
      ],
      [
        "sw",
        "im"
      ],
      [
        "bef",
        "inden"
      ],
      [
        "adult",
        "s"
      ],
      [
        "Pol",
        "iz"
      ],
      [
        "ev",
        "ent"
      ],
      [
        "b",
        "ir"
      ],
      [
        "f",
        "amil"
      ],
      [
        "h",
        "men"
      ],
      [
        "ge",
        "s"
      ],
      [
        "lo",
        "t"
      ],
      [
        "Ge",
        "gen"
      ],
      [
        "alt",
        "ung"
      ],
      [
        "drin",
        "king"
      ],
      [
        "Gewä",
        "ss"
      ],
      [
        "P",
        "u"
      ],
      [
        "Ein",
        "kauf"
      ],
      [
        "ho",
        "se"
      ],
      [
        "orange",
        "farben"
      ],
      [
        "sho",
        "es"
      ],
      [
        "G",
        "et"
      ],
      [
        "O",
        "r"
      ],
      [
        "R",
        "ücken"
      ],
      [
        "c",
        "lass"
      ],
      [
        "k",
        "ä"
      ],
      [
        "s",
        "car"
      ],
      [
        "t",
        "em"
      ],
      [
        "v",
        "en"
      ],
      [
        "si",
        "on"
      ],
      [
        "sk",
        "i"
      ],
      [
        "age",
        "d"
      ],
      [
        "bri",
        "dge"
      ],
      [
        "af",
        "ter"
      ],
      [
        "Kü",
        "che"
      ],
      [
        "b",
        "ur"
      ],
      [
        "b",
        "ble"
      ],
      [
        "g",
        "ol"
      ],
      [
        "n",
        "um"
      ],
      [
        "ra",
        "ft"
      ],
      [
        "Sch",
        "lag"
      ],
      [
        "Sp",
        "rung"
      ],
      [
        "lass",
        "en"
      ],
      [
        "Se",
        "ite"
      ],
      [
        "flow",
        "ers"
      ],
      [
        "Zuschau",
        "er"
      ],
      [
        "Bet",
        "on"
      ],
      [
        "S",
        "of"
      ],
      [
        "i",
        "ful"
      ],
      [
        "w",
        "el"
      ],
      [
        "an",
        "st"
      ],
      [
        "on",
        "d"
      ],
      [
        "sp",
        "az"
      ],
      [
        "ver",
        "schie"
      ],
      [
        "lä",
        "che"
      ],
      [
        "fo",
        "untain"
      ],
      [
        "arm",
        "s"
      ],
      [
        "gather",
        "ed"
      ],
      [
        "aut",
        "iful"
      ],
      [
        "B",
        "ik"
      ],
      [
        "C",
        "ow"
      ],
      [
        "W",
        "elle"
      ],
      [
        "n",
        "immt"
      ],
      [
        "st",
        "ück"
      ],
      [
        "um",
        "geben"
      ],
      [
        "Sch",
        "au"
      ],
      [
        "In",
        "stru"
      ],
      [
        "kur",
        "zen"
      ],
      [
        "hang",
        "ing"
      ],
      [
        "B",
        "us"
      ],
      [
        "F",
        "lag"
      ],
      [
        "a",
        "way"
      ],
      [
        "g",
        "ym"
      ],
      [
        "t",
        "im"
      ],
      [
        "v",
        "ier"
      ],
      [
        "in",
        "es"
      ],
      [
        "le",
        "gt"
      ],
      [
        "to",
        "o"
      ],
      [
        "fo",
        "to"
      ],
      [
        "hän",
        "gt"
      ],
      [
        "fel",
        "d"
      ],
      [
        "sub",
        "way"
      ],
      [
        "K",
        "on"
      ],
      [
        "L",
        "o"
      ],
      [
        "m",
        "el"
      ],
      [
        "le",
        "ap"
      ],
      [
        "we",
        "en"
      ],
      [
        "sk",
        "irt"
      ],
      [
        "tra",
        "dition"
      ],
      [
        "Trep",
        "pe"
      ],
      [
        "Afri",
        "can"
      ],
      [
        "famil",
        "y"
      ],
      [
        "G",
        "em"
      ],
      [
        "H",
        "a"
      ],
      [
        "st",
        "ä"
      ],
      [
        "la",
        "chen"
      ],
      [
        "Sch",
        "ü"
      ],
      [
        "sk",
        "y"
      ],
      [
        "vol",
        "leyball"
      ],
      [
        "prep",
        "aring"
      ],
      [
        "haar",
        "ige"
      ],
      [
        "P",
        "la"
      ],
      [
        "W",
        "er"
      ],
      [
        "b",
        "s"
      ],
      [
        "b",
        "at"
      ],
      [
        "g",
        "ang"
      ],
      [
        "k",
        "aufen"
      ],
      [
        "le",
        "aning"
      ],
      [
        "sch",
        "w"
      ],
      [
        "sch",
        "ein"
      ],
      [
        "sch",
        "wimm"
      ],
      [
        "ste",
        "ps"
      ],
      [
        "ver",
        "kauft"
      ],
      [
        "ball",
        "o"
      ],
      [
        "table",
        "s"
      ],
      [
        "ob",
        "ject"
      ],
      [
        "costum",
        "e"
      ],
      [
        "Famil",
        "ie"
      ],
      [
        "tod",
        "dler"
      ],
      [
        "S",
        "a"
      ],
      [
        "T",
        "or"
      ],
      [
        "b",
        "ank"
      ],
      [
        "i",
        "ent"
      ],
      [
        "mit",
        "t"
      ],
      [
        "Man",
        "y"
      ],
      [
        "of",
        "fen"
      ],
      [
        "be",
        "autiful"
      ],
      [
        "sh",
        "ort"
      ],
      [
        "gen",
        "t"
      ],
      [
        "ta",
        "ke"
      ],
      [
        "off",
        "ic"
      ],
      [
        "com",
        "puter"
      ],
      [
        "ath",
        "on"
      ],
      [
        "vie",
        "w"
      ],
      [
        "fish",
        "ing"
      ],
      [
        "slee",
        "ping"
      ],
      [
        "Wa",
        "gen"
      ],
      [
        "schnei",
        "det"
      ],
      [
        "j",
        "ust"
      ],
      [
        "do",
        "es"
      ],
      [
        "ger",
        "ade"
      ],
      [
        "tra",
        "il"
      ],
      [
        "ma",
        "ke"
      ],
      [
        "gu",
        "ys"
      ],
      [
        "rosa",
        "farbenen"
      ],
      [
        "trink",
        "t"
      ],
      [
        "versamm",
        "elt"
      ],
      [
        "Child",
        "ren"
      ],
      [
        "Get",
        "rän"
      ],
      [
        "ar",
        "n"
      ],
      [
        "st",
        "atue"
      ],
      [
        "pla",
        "id"
      ],
      [
        "tr",
        "y"
      ],
      [
        "aus",
        "sehen"
      ],
      [
        "bun",
        "ten"
      ],
      [
        "mach",
        "ine"
      ],
      [
        "Pap",
        "ier"
      ],
      [
        "Amer",
        "ican"
      ],
      [
        "i",
        "um"
      ],
      [
        "l",
        "s"
      ],
      [
        "p",
        "lat"
      ],
      [
        "v",
        "ed"
      ],
      [
        "ben",
        "ut"
      ],
      [
        "Sch",
        "warz"
      ],
      [
        "stair",
        "s"
      ],
      [
        "i",
        "hn"
      ],
      [
        "p",
        "it"
      ],
      [
        "at",
        "too"
      ],
      [
        "op",
        "s"
      ],
      [
        "um",
        "mer"
      ],
      [
        "isch",
        "es"
      ],
      [
        "fo",
        "ur"
      ],
      [
        "cour",
        "t"
      ],
      [
        "kä",
        "mp"
      ],
      [
        "anst",
        "altung"
      ],
      [
        "D",
        "o"
      ],
      [
        "R",
        "icht"
      ],
      [
        "c",
        "up"
      ],
      [
        "h",
        "nen"
      ],
      [
        "m",
        "at"
      ],
      [
        "m",
        "alt"
      ],
      [
        "z",
        "o"
      ],
      [
        "ein",
        "ige"
      ],
      [
        "ro",
        "te"
      ],
      [
        "ra",
        "il"
      ],
      [
        "me",
        "hr"
      ],
      [
        "chair",
        "s"
      ],
      [
        "g",
        "lass"
      ],
      [
        "h",
        "em"
      ],
      [
        "k",
        "i"
      ],
      [
        "n",
        "el"
      ],
      [
        "r",
        "in"
      ],
      [
        "z",
        "immer"
      ],
      [
        "gr",
        "uppe"
      ],
      [
        "ta",
        "g"
      ],
      [
        "run",
        "nen"
      ],
      [
        "gra",
        "ffiti"
      ],
      [
        "pol",
        "ice"
      ],
      [
        "telefon",
        "iert"
      ],
      [
        "spaz",
        "ieren"
      ],
      [
        "c",
        "am"
      ],
      [
        "h",
        "ö"
      ],
      [
        "h",
        "ut"
      ],
      [
        "m",
        "as"
      ],
      [
        "w",
        "et"
      ],
      [
        "ch",
        "as"
      ],
      [
        "st",
        "ung"
      ],
      [
        "mit",
        "tel"
      ],
      [
        "he",
        "bt"
      ],
      [
        "tr",
        "itt"
      ],
      [
        "po",
        "se"
      ],
      [
        "sm",
        "o"
      ],
      [
        "Te",
        "enager"
      ],
      [
        "asiat",
        "ische"
      ],
      [
        "beleb",
        "ten"
      ],
      [
        "Com",
        "puter"
      ],
      [
        "a",
        "st"
      ],
      [
        "e",
        "qu"
      ],
      [
        "k",
        "on"
      ],
      [
        "al",
        "en"
      ],
      [
        "ro",
        "cks"
      ],
      [
        "we",
        "d"
      ],
      [
        "ach",
        "ten"
      ],
      [
        "gro",
        "ßer"
      ],
      [
        "shirt",
        "less"
      ],
      [
        "aus",
        "ge"
      ],
      [
        "fo",
        "rest"
      ],
      [
        "hal",
        "b"
      ],
      [
        "io",
        "us"
      ],
      [
        "bal",
        "an"
      ],
      [
        "schu",
        "hen"
      ],
      [
        "sell",
        "ing"
      ],
      [
        "pra",
        "ct"
      ],
      [
        "V",
        "ol"
      ],
      [
        "h",
        "it"
      ],
      [
        "j",
        "a"
      ],
      [
        "j",
        "ers"
      ],
      [
        "j",
        "emand"
      ],
      [
        "t",
        "all"
      ],
      [
        "ün",
        "st"
      ],
      [
        "Fußball",
        "spieler"
      ],
      [
        "set",
        "ting"
      ],
      [
        "boar",
        "ding"
      ],
      [
        "sun",
        "ny"
      ],
      [
        "schlä",
        "gt"
      ],
      [
        "Rei",
        "he"
      ],
      [
        "schwimm",
        "t"
      ],
      [
        "f",
        "le"
      ],
      [
        "h",
        "il"
      ],
      [
        "m",
        "art"
      ],
      [
        "et",
        "en"
      ],
      [
        "li",
        "es"
      ],
      [
        "imm",
        "el"
      ],
      [
        "weiß",
        "es"
      ],
      [
        "Te",
        "am"
      ],
      [
        "blick",
        "en"
      ],
      [
        "Ro",
        "ck"
      ],
      [
        "son",
        "n"
      ],
      [
        "Gewäss",
        "er"
      ],
      [
        "M",
        "ar"
      ],
      [
        "R",
        "asen"
      ],
      [
        "T",
        "y"
      ],
      [
        "f",
        "liegt"
      ],
      [
        "m",
        "atch"
      ],
      [
        "ch",
        "s"
      ],
      [
        "at",
        "s"
      ],
      [
        "sch",
        "t"
      ],
      [
        "ra",
        "cing"
      ],
      [
        "ho",
        "hen"
      ],
      [
        "ell",
        "er"
      ],
      [
        "ke",
        "hr"
      ],
      [
        "Kopf",
        "bedeck"
      ],
      [
        "Auto",
        "s"
      ],
      [
        "par",
        "ade"
      ],
      [
        "instru",
        "ment"
      ],
      [
        "kom",
        "mt"
      ],
      [
        "schnee",
        "bedeckten"
      ],
      [
        "frei",
        "em"
      ],
      [
        "scar",
        "f"
      ],
      [
        "M",
        "utter"
      ],
      [
        "T",
        "asche"
      ],
      [
        "b",
        "or"
      ],
      [
        "d",
        "t"
      ],
      [
        "t",
        "ur"
      ],
      [
        "ein",
        "igen"
      ],
      [
        "bl",
        "ow"
      ],
      [
        "bo",
        "th"
      ],
      [
        "li",
        "sten"
      ],
      [
        "fo",
        "ot"
      ],
      [
        "bereit",
        "en"
      ],
      [
        "cor",
        "ner"
      ],
      [
        "grün",
        "em"
      ],
      [
        "put",
        "ting"
      ],
      [
        "utsch",
        "e"
      ],
      [
        "Zeit",
        "ung"
      ],
      [
        "viel",
        "en"
      ],
      [
        "equ",
        "ip"
      ],
      [
        "B",
        "art"
      ],
      [
        "c",
        "r"
      ],
      [
        "h",
        "ing"
      ],
      [
        "k",
        "ne"
      ],
      [
        "p",
        "ick"
      ],
      [
        "t",
        "ro"
      ],
      [
        "all",
        "y"
      ],
      [
        "bl",
        "ik"
      ],
      [
        "ri",
        "ft"
      ],
      [
        "te",
        "en"
      ],
      [
        "lä",
        "sst"
      ],
      [
        "thro",
        "w"
      ],
      [
        "thro",
        "wing"
      ],
      [
        "bik",
        "es"
      ],
      [
        "hin",
        "auf"
      ],
      [
        "Gebäu",
        "des"
      ],
      [
        "Br",
        "ücke"
      ],
      [
        "Hän",
        "de"
      ],
      [
        "stra",
        "ße"
      ],
      [
        "flow",
        "er"
      ],
      [
        "Feuer",
        "wehr"
      ],
      [
        "push",
        "ing"
      ],
      [
        "gent",
        "l"
      ],
      [
        "sonn",
        "igen"
      ],
      [
        "blik",
        "um"
      ],
      [
        "H",
        "immel"
      ],
      [
        "S",
        "ie"
      ],
      [
        "d",
        "ist"
      ],
      [
        "p",
        "at"
      ],
      [
        "ü",
        "gen"
      ],
      [
        "al",
        "te"
      ],
      [
        "ro",
        "ll"
      ],
      [
        "ck",
        "ing"
      ],
      [
        "ol",
        "in"
      ],
      [
        "bl",
        "ic"
      ],
      [
        "be",
        "fest"
      ],
      [
        "sp",
        "an"
      ],
      [
        "ha",
        "ve"
      ],
      [
        "jack",
        "e"
      ],
      [
        "pu",
        "blic"
      ],
      [
        "bet",
        "ween"
      ],
      [
        "Un",
        "ter"
      ],
      [
        "sli",
        "de"
      ],
      [
        "Pu",
        "blikum"
      ],
      [
        "foto",
        "graf"
      ],
      [
        "zo",
        "gen"
      ],
      [
        "A",
        "lter"
      ],
      [
        "P",
        "latz"
      ],
      [
        "h",
        "ic"
      ],
      [
        "n",
        "ä"
      ],
      [
        "ch",
        "ing"
      ],
      [
        "la",
        "dies"
      ],
      [
        "den",
        "t"
      ],
      [
        "ass",
        "en"
      ],
      [
        "co",
        "uch"
      ],
      [
        "Hem",
        "den"
      ],
      [
        "sc",
        "en"
      ],
      [
        "stu",
        "hl"
      ],
      [
        "rü",
        "stung"
      ],
      [
        "part",
        "y"
      ],
      [
        "Gelän",
        "der"
      ],
      [
        "laugh",
        "ing"
      ],
      [
        "tim",
        "e"
      ],
      [
        "kämp",
        "fen"
      ],
      [
        "Richt",
        "ung"
      ],
      [
        "ünst",
        "ler"
      ],
      [
        "J",
        "u"
      ],
      [
        "K",
        "ampf"
      ],
      [
        "M",
        "a"
      ],
      [
        "M",
        "ü"
      ],
      [
        "P",
        "ar"
      ],
      [
        "f",
        "lip"
      ],
      [
        "l",
        "ink"
      ],
      [
        "be",
        "ard"
      ],
      [
        "gro",
        "ß"
      ],
      [
        "ver",
        "t"
      ],
      [
        "fr",
        "uit"
      ],
      [
        "ct",
        "ure"
      ],
      [
        "some",
        "one"
      ],
      [
        "instrumen",
        "ts"
      ],
      [
        "Cow",
        "boy"
      ],
      [
        "equip",
        "ment"
      ],
      [
        "G",
        "ar"
[...]
